node {
  name: "global_step/Initializer/zeros"
  op: "Const"
  attr {
    key: "_class"
    value {
      list {
        s: "loc:@global_step"
      }
    }
  }
  attr {
    key: "_output_shapes"
    value {
      list {
        shape {
        }
      }
    }
  }
  attr {
    key: "dtype"
    value {
      type: DT_INT64
    }
  }
  attr {
    key: "value"
    value {
      tensor {
        dtype: DT_INT64
        tensor_shape {
        }
        int64_val: 0
      }
    }
  }
}
node {
  name: "global_step"
  op: "VarHandleOp"
  attr {
    key: "_class"
    value {
      list {
        s: "loc:@global_step"
      }
    }
  }
  attr {
    key: "_output_shapes"
    value {
      list {
        shape {
        }
      }
    }
  }
  attr {
    key: "allowed_devices"
    value {
      list {
      }
    }
  }
  attr {
    key: "container"
    value {
      s: ""
    }
  }
  attr {
    key: "dtype"
    value {
      type: DT_INT64
    }
  }
  attr {
    key: "shape"
    value {
      shape {
      }
    }
  }
  attr {
    key: "shared_name"
    value {
      s: "global_step"
    }
  }
}
node {
  name: "global_step/IsInitialized/VarIsInitializedOp"
  op: "VarIsInitializedOp"
  input: "global_step"
  attr {
    key: "_output_shapes"
    value {
      list {
        shape {
        }
      }
    }
  }
}
node {
  name: "global_step/Assign"
  op: "AssignVariableOp"
  input: "global_step"
  input: "global_step/Initializer/zeros"
  attr {
    key: "_has_manual_control_dependencies"
    value {
      b: true
    }
  }
  attr {
    key: "dtype"
    value {
      type: DT_INT64
    }
  }
  attr {
    key: "validate_shape"
    value {
      b: false
    }
  }
}
node {
  name: "global_step/Read/ReadVariableOp"
  op: "ReadVariableOp"
  input: "global_step"
  attr {
    key: "_output_shapes"
    value {
      list {
        shape {
        }
      }
    }
  }
  attr {
    key: "dtype"
    value {
      type: DT_INT64
    }
  }
}
node {
  name: "global_step/VarIsInitializedOp"
  op: "VarIsInitializedOp"
  input: "global_step"
  attr {
    key: "_output_shapes"
    value {
      list {
        shape {
        }
      }
    }
  }
}
node {
  name: "global_step/cond"
  op: "If"
  input: "global_step/VarIsInitializedOp"
  input: "global_step"
  input: "global_step/Initializer/zeros"
  attr {
    key: "Tcond"
    value {
      type: DT_BOOL
    }
  }
  attr {
    key: "Tin"
    value {
      list {
        type: DT_RESOURCE
        type: DT_INT64
      }
    }
  }
  attr {
    key: "Tout"
    value {
      list {
        type: DT_INT64
      }
    }
  }
  attr {
    key: "_lower_using_switch_merge"
    value {
      b: true
    }
  }
  attr {
    key: "_output_shapes"
    value {
      list {
        shape {
        }
      }
    }
  }
  attr {
    key: "_read_only_resource_inputs"
    value {
      list {
        i: 1
      }
    }
  }
  attr {
    key: "else_branch"
    value {
      func {
        name: "global_step_cond_false_7"
      }
    }
  }
  attr {
    key: "output_shapes"
    value {
      list {
        shape {
        }
      }
    }
  }
  attr {
    key: "then_branch"
    value {
      func {
        name: "global_step_cond_true_6"
      }
    }
  }
}
node {
  name: "global_step/cond/Identity"
  op: "Identity"
  input: "global_step/cond"
  attr {
    key: "T"
    value {
      type: DT_INT64
    }
  }
  attr {
    key: "_output_shapes"
    value {
      list {
        shape {
        }
      }
    }
  }
}
node {
  name: "global_step/add/y"
  op: "Const"
  attr {
    key: "_output_shapes"
    value {
      list {
        shape {
        }
      }
    }
  }
  attr {
    key: "dtype"
    value {
      type: DT_INT64
    }
  }
  attr {
    key: "value"
    value {
      tensor {
        dtype: DT_INT64
        tensor_shape {
        }
        int64_val: 0
      }
    }
  }
}
node {
  name: "global_step/add"
  op: "AddV2"
  input: "global_step/cond/Identity"
  input: "global_step/add/y"
  attr {
    key: "T"
    value {
      type: DT_INT64
    }
  }
  attr {
    key: "_output_shapes"
    value {
      list {
        shape {
        }
      }
    }
  }
}
node {
  name: "normalize_element/component_0"
  op: "Const"
  device: "/device:CPU:0"
  attr {
    key: "_output_shapes"
    value {
      list {
        shape {
          dim {
            size: 404
          }
        }
      }
    }
  }
  attr {
    key: "dtype"
    value {
      type: DT_DOUBLE
    }
  }
  attr {
    key: "value"
    value {
      tensor {
        dtype: DT_DOUBLE
        tensor_shape {
          dim {
            size: 404
          }
        }
        tensor_content: "\315\314\314\314\314\354V@ffffff/@\000\000\000\000\000\000Y@\000\000\000\000\000@A@\232\231\231\231\231\031V@33333\223R@\000\000\000\000\000\000Y@\000\000\000\000\000\000Y@\000\000\000\000\000\000Y@\000\000\000\000\000\000Y@\000\000\000\000\000\000Y@\000\000\000\000\000\000Y@\000\000\000\000\000 V@fffff\306V@fffff\346W@\000\000\000\000\000\000Y@\000\000\000\000\000`X@\232\231\231\231\231\0314@333333C@\232\231\231\231\231\371S@\315\314\314\314\314\254S@\315\314\314\314\314\3145@\315\314\314\314\314\314+@\315\314\314\314\314LP@\315\314\314\314\314\314M@33333\263X@fffff\246P@\315\314\314\314\314\214N@33333\223V@\000\000\000\000\000`R@\315\314\314\314\314\314F@33333\363V@\315\314\314\314\314\354T@\315\314\314\314\314L=@\232\231\231\231\231\231/@\315\314\314\314\314\014D@\315\314\314\314\314lU@\000\000\000\000\000\300W@33333\363H@\000\000\000\000\000\240R@\315\314\314\314\314,W@\000\000\000\000\000\000\032@\315\314\314\314\314\014C@\000\000\000\000\000\000Y@\315\314\314\314\314\254W@fffff\206W@\232\231\231\231\231\331W@33333\323U@\000\000\000\000\000\000Y@\000\000\000\000\000@X@\000\000\000\000\000@M@33333SW@fffff\346Q@fffff\3466@33333SX@\315\314\314\314\314lQ@fffff\206U@fffff\206S@ffffffE@\315\314\314\314\314\214@@fffff\006U@\232\231\231\231\231YM@\315\314\314\314\314,X@\232\231\231\231\231\371V@\000\000\000\000\000\240U@\232\231\231\231\231\371U@\232\231\231\231\231\231X@\232\231\231\231\231\031W@33333sS@fffff&V@fffff\346@@fffff\246W@\315\314\314\314\314L:@\315\314\314\314\314\314T@\232\231\231\231\2319X@\000\000\000\000\000\000Y@\232\231\231\231\231\331W@\315\314\314\314\314\254W@\232\231\231\231\231YW@\000\000\000\000\000\000Y@\232\231\231\231\231\031?@\315\314\314\314\314LJ@\315\314\314\314\314LB@fffff\346?@\232\231\231\231\231yX@\000\000\000\000\000@C@\000\000\000\000\000\000X@\232\231\231\231\231\231@@\315\314\314\314\314\354W@fffffFU@\232\231\231\231\231\271R@fffff\346?@fffff&E@33333\323T@\000\000\000\000\000\000S@33333sJ@\232\231\231\231\231\231.@\315\314\314\314\314\214F@\315\314\314\314\314\314#@\232\231\231\231\231YM@\232\231\231\231\231\331H@33333SR@ffffffM@333333\007@\000\000\000\000\000\000Y@\000\000\000\000\000\000*@\232\231\231\231\231YX@\000\000\000\000\000\000D@fffff\246Q@fffff\006W@\315\314\314\314\314\314V@\315\314\314\314\314\014X@ffffffT@\232\231\231\231\2319R@\232\231\231\231\231\331A@\232\231\231\231\231\031K@33333\323W@\232\231\231\231\231yU@\315\314\314\314\314\014V@\000\000\000\000\000\2003@\232\231\231\231\231YR@\000\000\000\000\000`Q@\000\000\000\000\000\000Y@\232\231\231\231\231\031A@\232\231\231\231\231\371V@\000\000\000\000\000\200T@\232\231\231\231\231\331J@\000\000\000\000\000\2005@fffff&U@333333F@fffff\246@@\315\314\314\314\314LP@\232\231\231\231\2319S@\315\314\314\314\314\214D@\315\314\314\314\314\314<@33333\363W@fffff\306X@\232\231\231\231\231\271U@\232\231\231\231\231\231G@\000\000\000\000\000\000Y@33333\323W@fffffFX@fffff&W@\315\314\314\314\314lX@\000\000\000\000\000\300V@\315\314\314\314\314\214H@33333\263E@\000\000\000\000\000\000U@\000\000\000\000\000\000Y@ffffff-@33333\023T@\000\000\000\000\000@A@ffffffQ@333333T@\315\314\314\314\314L6@\000\000\000\000\000\000Y@\232\231\231\231\231YU@\000\000\000\000\000\2002@\000\000\000\000\000\000Y@fffff\346J@\315\314\314\314\314\314S@33333\223U@\232\231\231\231\231\231W@fffff\346I@33333\263;@\000\000\000\000\000\000Y@fffff\246B@333333\037@\000\000\000\000\000\300@@33333\263X@\000\000\000\000\000\200I@fffff\006U@\232\231\231\231\231\231J@fffff\3465@\000\000\000\000\000\200C@\232\231\231\231\231\231X@\000\000\000\000\000 S@ffffff\032@\000\000\000\000\000\000Y@33333\363P@\000\000\000\000\000\000Y@\000\000\000\000\000\300N@\232\231\231\231\231\371S@\315\314\314\314\314\314>@\315\314\314\314\314LB@\315\314\314\314\314\314V@fffff\246T@\232\231\231\231\231\231V@\315\314\314\314\314\314P@\232\231\231\231\231\031W@333333V@\000\000\000\000\000\340V@\315\314\314\314\314,Q@\232\231\231\231\231\371Q@\315\314\314\314\314\014E@fffff\206X@\315\314\314\314\314\3144@\315\314\314\314\314\014X@ffffff5@\315\314\314\314\314\014Q@\232\231\231\231\231\231Q@33333sX@\232\231\231\231\231\031E@ffffffO@\315\314\314\314\314LV@ffffffW@fffff&W@\232\231\231\231\231\331E@fffffFR@\000\000\000\000\000\000K@33333sV@fffff\206W@33333\363A@fffff\006X@\000\000\000\000\000\000Y@\315\314\314\314\314\014@@\000\000\000\000\000\300D@\315\314\314\314\314,X@\000\000\000\000\000\000Y@33333\323U@33333\323X@\232\231\231\231\231\271X@\000\000\000\000\000\2001@\000\000\000\000\000@L@\000\000\000\000\000\000V@fffff\346F@fffff\346;@\232\231\231\231\231YP@\000\000\000\000\000\000Y@\232\231\231\231\231\371U@33333\2631@\000\000\000\000\000\000X@\000\000\000\000\000\000L@\232\231\231\231\231\231Q@\315\314\314\314\314\314J@\000\000\000\000\000\240T@\000\000\000\000\000\200W@\232\231\231\231\231\371U@33333ST@\232\231\231\231\231yX@\000\000\000\000\000\000V@\000\000\000\000\000\000Y@\000\000\000\000\000\300N@\315\314\314\314\314\014U@33333\323V@fffff&G@\000\000\000\000\000\200H@\000\000\000\000\000\240T@\000\000\000\000\000\000Y@\000\000\000\000\000\300Q@fffff\206W@\315\314\314\314\314\314W@\000\000\000\000\000\000Y@33333SW@\000\000\000\000\000\000Y@\000\000\000\000\000\000X@fffffFP@\232\231\231\231\231\231R@\232\231\231\231\231yX@33333\263;@\000\000\000\000\000 P@33333sW@\232\231\231\231\231\231G@\000\000\000\000\000\000$@\232\231\231\231\231yR@33333\263X@fffff\246W@fffff&C@\000\000\000\000\000\200?@fffff\346<@fffff\246T@\232\231\231\231\231\031@@33333\223Q@33333\363I@\000\000\000\000\000\200F@fffff&J@\000\000\000\000\000\240W@\000\000\000\000\000\2001@ffffffB@\315\314\314\314\314\014W@\315\314\314\314\314lT@\000\000\000\000\000\000Y@\000\000\000\000\000\000X@333333L@\232\231\231\231\231\371U@\000\000\000\000\000\000Y@fffff\206X@\000\000\000\000\000\300W@\315\314\314\314\314LX@33333\263T@\000\000\000\000\000\000Y@33333\263R@\315\314\314\314\314LU@\315\314\314\314\314,S@\232\231\231\231\231\031V@33333SS@fffff\346V@\232\231\231\231\231\271X@33333\263G@fffff&X@\232\231\231\231\231\331V@\000\000\000\000\000@X@\315\314\314\314\314\314G@\232\231\231\231\231\031O@\232\231\231\231\231\031X@\000\000\000\000\000 U@\315\314\314\314\314\014A@fffff&D@\232\231\231\231\231\331F@\000\000\000\000\000@D@\315\314\314\314\314\314!@\232\231\231\231\231\031?@333333\037@33333\263V@33333\223S@\315\314\314\314\314\354S@\232\231\231\231\231\331W@\000\000\000\000\000\300T@\000\000\000\000\000\000@@\000\000\000\000\000\300T@\000\000\000\000\000\200V@ffffffV@fffff&J@\315\314\314\314\314\014X@\232\231\231\231\231\331U@\232\231\231\231\231YX@fffff\346N@\000\000\000\000\000\200O@\232\231\231\231\231\331W@\232\231\231\231\231\331M@\000\000\000\000\000\000H@33333\363D@ffffff5@333333=@\000\000\000\000\000@V@ffffffW@33333sT@\315\314\314\314\314\214D@\232\231\231\231\231yW@fffff\246Q@\315\314\314\314\314\214P@\000\000\000\000\000\240W@\000\000\000\000\000\240P@333333T@\232\231\231\231\231yW@33333\263V@333333D@\000\000\000\000\000\000Y@\000\000\000\000\000\240U@\315\314\314\314\314\3148@33333\363V@fffff\346F@\315\314\314\314\314\3141@ffffff7@333333X@\315\314\314\314\314\3149@ffffff2@3333331@\315\314\314\314\314\214X@333333K@\232\231\231\231\231\271X@33333sB@\315\314\314\314\314,S@\000\000\000\000\000@O@\232\231\231\231\231\031H@\315\314\314\314\314,R@fffff\246H@33333SV@ffffff<@\315\314\314\314\314,U@33333\223W@fffff\346B@\000\000\000\000\000 S@\232\231\231\231\231\231#@fffffFU@333333M@fffff\206P@\000\000\000\000\000\200V@\232\231\231\231\231\0315@\232\231\231\231\231\031=@ffffffJ@\000\000\000\000\000`W@\315\314\314\314\314\214X@\315\314\314\314\314LB@\000\000\000\000\000@H@333333>@fffff&X@33333\323Q@\315\314\314\314\314\214O@\315\314\314\314\314\214X@fffffFV@\315\314\314\314\314\214M@fffff\346<@\232\231\231\231\231\031U@\232\231\231\231\231YX@\000\000\000\000\000\000Y@33333\263W@\000\000\000\000\000@J@\000\000\000\000\000\000Y@\000\000\000\000\000\000O@\315\314\314\314\314L0@\315\314\314\314\314L7@\000\000\000\000\000\240X@\315\314\314\314\314\3142@"
      }
    }
  }
}
node {
  name: "normalize_element/component_1"
  op: "Const"
  device: "/device:CPU:0"
  attr {
    key: "_output_shapes"
    value {
      list {
        shape {
          dim {
            size: 404
          }
        }
      }
    }
  }
  attr {
    key: "dtype"
    value {
      type: DT_DOUBLE
    }
  }
  attr {
    key: "value"
    value {
      tensor {
        dtype: DT_DOUBLE
        tensor_shape {
          dim {
            size: 404
          }
        }
        tensor_content: "fffff\316x@\256G\341z\024\266x@\270\036\205\353Qxw@fffff\316x@{\024\256G\341vx@\256G\341z\024rx@fffff\316x@fffff\316x@q=\n\327\243(e@fffff\316x@\366(\\\217\302\201w@\n\327\243p=\312<@fffff\316x@fffff\352u@q=\n\327\243tv@33333s0@\315\314\314\314\314\200x@\244p=\n\327\003w@\270\036\205\353Q\234x@\\\217\302\365(\254x@R\270\036\205\353\3212@\256G\341z\024\272x@\315\314\314\314\314\004x@fffff\316x@)\\\217\302\365\254x@fffff\316x@\232\231\231\231\231\271x@\341z\024\256G\215x@\256G\341z\024\216w@\270\036\205\353Q\274x@fffff\316x@=\n\327\243p\021x@\217\302\365(\\\003q@\232\231\231\231\231-x@R\270\036\205\353\271x@fffff\316x@\037\205\353Q\270\366r@\270\036\205\353Qlv@fffff\316x@\303\365(\\\217Zw@=\n\327\243p\261x@\217\302\365(\\\247x@\217\302\365(\\[x@\000\000\000\000\000\354s@fffff\316x@\341z\024\256G\245x@\327\243p=\nKx@H\341z\024\256\303w@{\024\256G\341~x@{\024\256G\341\246x@fffff\316x@=\n\327\243p};@\205\353Q\270\036ax@\354Q\270\036\205;w@\256G\341z\024\302u@fffffRx@\315\314\314\314\314\334T@\037\205\353Q\270.X@fffff\316x@\217\302\365(\\ox@\037\205\353Q\270\232w@\217\302\365(\\\257x@33333\273w@\037\205\353Q\270\272x@\366(\\\217\302uI@\\\217\302\365(\014Y@\\\217\302\365(lp@33333wx@\303\365(\\\217\"u@\244p=\n\327\263x@fffff\316x@fffffv[@\244p=\n\327gx@33333kx@R\270\036\205\353\to@\256G\341z\024*x@\270\036\205\353Q\270\036@fffff\316x@\341z\024\256G\241w@fffff\316x@fffff\316x@\315\314\314\314\314dx@\244p=\n\327\017r@\354Q\270\036\205\253x@\\\217\302\365(\034x@fffffVx@fffff\316x@\024\256G\341z\214x@\217\302\365(\\{x@)\\\217\302\365(\004@\205\353Q\270\036\221x@\315\314\314\314\314hx@fffff\316x@)\\\217\302\365\270x@fffff\316x@\000\000\000\000\000Lw@fffff\316x@\244p=\n\327\277x@R\270\036\205\353\225x@R\270\036\205\353\241x@\205\353Q\270\036\221w@\303\365(\\\217\036x@H\341z\024\256\303x@\303\365(\\\217\026x@\315\314\314\314\314\314\004@\024\256G\341z\304x@\\\217\302\365(\354r@\n\327\243p=Vx@333333\r@\000\000\000\000\000\224x@H\341z\024\256sx@\315\314\314\314\314\024w@=\n\327\243p\271x@fffff\316x@fffff\316x@fffff\316x@H\341z\024\256\377s@\217\302\365(\\+x@\303\365(\\\217\216u@q=\n\327\243\200w@\232\231\231\231\231\271x@33333ox@\244p=\n\327\243\"@=\n\327\243p%x@fffff\316x@33333\023m@fffff&x@{\024\256G\341\232w@\205\353Q\270\036\001x@fffff\316x@fffff\316x@\000\000\000\000\000xx@\n\327\243p=\202w@R\270\036\205\353\235x@q=\n\327\243\224x@\256G\341z\024\266w@fffff\316x@33333[x@fffff\316x@\354Q\270\036\205\017x@fffff\316x@\244p=\n\327\263x@fffff\316x@fffff\316x@fffff\316x@\217\302\365(\\kw@\341z\024\256G\271x@fffff\316x@fffff\206A@{\024\256G\341\232x@\000\000\000\000\000\000\014@\232\231\231\231\231]x@\341z\024\256G}x@fffff\316x@fffff\316x@\232\231\231\231\231Yu@\217\302\365(\\\227t@\303\365(\\\217\266w@=\n\327\243pm`@\327\243p=\nox@\n\327\243p=\202w@fffff\316x@\327\243p=\n?x@\270\036\205\353Qlx@{\024\256G\341\206x@=\n\327\243p\301t@\n\327\243p=\302x@\217\302\365(\\kw@fffff\316x@\366(\\\217\302ax@\232\231\231\231\231\215x@\000\000\000\000\000\270x@\354Q\270\036\205Cx@\315\314\314\314\314\354w@\000\000\000\000\000hx@\341z\024\256G\241x@\232\231\231\231\2319H@R\270\036\205\353\365w@\205\353Q\270\036\235e@fffff\316x@\327\243p=\n\273x@=\n\327\243pux@\341z\024\256GAw@\217\302\365(\\[x@)\\\217\302\365\300x@\341z\024\256G\335q@\\\217\302\365(\250x@\315\314\314\314\314\304x@\217\302\365(\\\263x@\244p=\n\327\233x@\256G\341z\024&s@\366(\\\217\302-x@H\341z\024\256\223x@fffff\316x@fffffJx@\205\353Q\270\036\211w@\354Q\270\036\205\253x@fffff\316x@fffff\316x@fffff\316x@\256G\341z\024\272x@fffff\316x@\024\256G\341z\374w@fffff\206x@\024\256G\341z\210x@\217\302\365(\\\303x@{\024\256G\341z\324?fffff\316x@\256G\341z\024*u@fffff\316x@\000\000\000\000\000px@\270\036\205\353Q\270\032@\024\256G\341z,w@=\n\327\243p\221r@fffff\316x@fffff\316x@fffff\316x@\315\314\314\314\314\240x@)\\\217\302\365\304v@\327\243p=\n\273x@R\270\036\205\353}w@fffff\316x@\327\243p=\n\217w@R\270\036\205\353\271x@)\\\217\302\365hw@\256G\341z\024\252x@fffff\316x@fffff\316x@\n\327\243p=\036v@33333+v@{\024\256G\341fx@\366(\\\217\302\201x@\315\314\314\314\314\214x@33333\257w@\\\217\302\365(\260x@fffff\316x@\270\036\205\353Q(V@\366(\\\217\302\365$@\244p=\n\327kx@fffff\316x@\024\256G\341ztu@fffff\316x@\000\000\000\000\000\214w@\244p=\n\327Kx@\244p=\n\327\263x@fffff\316x@\000\000\000\000\000Tx@\256G\341z\024\246w@fffff\316x@\244p=\n\327\013w@\037\205\353Q\270\202v@q=\n\327\243\240t@\244p=\n\327\233x@\270\036\205\353Q\260v@\327\243p=\n_j@\270\036\205\353Q\020t@R\270\036\205\353\251x@\270\036\205\353Qtx@\n\327\243p=\252s@fffff\316x@)\\\217\302\3654x@\244p=\n\327Ov@H\341z\024\256\223x@\341z\024\256G9w@\315\314\314\314\314\230x@fffff\316x@q=\n\327\243Dr@33333\203x@\232\231\231\231\231Yu@\341z\024\256G\305x@q=\n\327\243\000V@fffff\316x@fffff\316x@R\270\036\205\353Ix@H\341z\024\256\363w@fffff\316x@\037\205\353Q\270\226x@\244p=\n\327\233x@fffff\316x@R\270\036\205\353\241x@\000\000\000\000\000,x@fffff\316x@fffff\316x@fffff\316x@\315\314\314\314\314<Q@fffff\316x@fffff\316x@\270\036\205\353Q(Y@\217\302\365(\\\037x@\n\327\243p=\226x@fffff\342v@\315\314\314\314\314|X@\327\243p=\n;x@fffff\316x@\270\036\205\353Q\020x@fffff\316x@\n\327\243p=>x@\232\231\231\231\231\221x@\366(\\\217\302mx@q=\n\327\243\020n@\024\256G\341z\300s@)\\\217\302\365$w@fffff\316x@fffff\316x@\\\217\302\365(\340s@\270\036\205\353Q\300w@fffff\316x@\037\205\353Q\270\216x@)\\\217\302\365\270x@fffff\216x@\205\353Q\270\036\221w@fffff\316x@\303\365(\\\217nx@R\270\036\205\353\2215@\315\314\314\314\314\020x@fffff\316x@fffff\316x@\000\000\000\000\000\340w@H\341z\024\256\243x@fffff\316x@\327\243p=\n\213x@\256G\341z\024\276u@\366(\\\217\302\311v@q=\n\327\243\314w@\354Q\270\036\205\247x@{\024\256G\341\266v@fffff\316x@\354Q\270\036\205\237x@\341z\024\256G\tv@\217\302\365(\\_x@fffff\316x@H\341z\024\256+w@=\n\327\243p\305w@{\024\256G\341jx@q=\n\327\243\020v@\341z\024\256GAx@\315\314\314\314\314\214x@{\024\256G\341\232x@fffff\316x@fffff\316x@\366(\\\217\302\261x@q=\n\327\243\264t@33333\203v@fffff\316x@33333Gx@{\024\256G\341fw@\000\000\000\000\000\274x@\354Q\270\036\205#w@\256G\341z\0246x@\270\036\205\353Q\270x@\366(\\\217\302\261x@\217\302\365(\\/x@fffff\316x@fffff\316x@\341z\024\256Guw@\327\243p=\n\347w@fffff\316x@\217\302\365(\\sw@q=\n\327\2434v@\244p=\n\327\227x@q=\n\327\243\260x@\024\256G\341z\230x@\244p=\n\327\303x@fffff\316x@fffff\346t@{\024\256G\341Vx@\244p=\n\327\253x@33333\227x@\270\036\205\353Q\240x@\303\365(\\\217\0026@\270\036\205\353Q\210x@33333\347u@33333Gx@{\024\256G\341\316u@\024\256G\341z\214x@fffff\316x@{\024\256G\341\202x@\217\302\365(\\\347o@fffff\316x@=\n\327\243p\355w@fffff\316x@\000\000\000\000\000\244w@\037\205\353Q\270\252x@)\\\217\302\365$v@\n\327\243p=\032x@{\024\256G\341\226x@\270\036\205\353QHx@\341z\024\256G\271x@)\\\217\302\365\300x@q=\n\327\243\200x@\327\243p=\n\327_@\205\353Q\270\036\325w@fffff\316x@fffff\316x@H\341z\024\256\233w@\341z\024\256G\021V@H\341z\024\256\207E@R\270\036\205\353\255x@fffff\316x@fffff\316x@fffff\316x@\000\000\000\000\000\244v@33333_p@33333\213w@"
      }
    }
  }
}
node {
  name: "normalize_element/component_2"
  op: "Const"
  device: "/device:CPU:0"
  attr {
    key: "_output_shapes"
    value {
      list {
        shape {
          dim {
            size: 404
          }
        }
      }
    }
  }
  attr {
    key: "dtype"
    value {
      type: DT_DOUBLE
    }
  }
  attr {
    key: "value"
    value {
      tensor {
        dtype: DT_DOUBLE
        tensor_shape {
          dim {
            size: 404
          }
        }
        tensor_content: "\000\000\000\000\000\000\000\000\000\000\000\000\000\000\000\000\000\000\000\000\000\000\000\000\000\000\000\000\000\000\000\000\000\000\000\000\000\000\000\000\000\000\000\000\000\000\000\000\000\000\000\000\000\000\000\000\000\000\000\000\000\000\000\000\000\000\000\000\000\000\000\000\000\000\000\000\000\000\000\000\000\000\000\000\000\000\000\000\000\000\000\000\000\000\000\000\000\000\000\000\000\000\000\000\000\000\000\000\000\000\000\000\000\000\000\000\000\000\000\000\000\000\000\000\000\000\000\000\000\000\000\000\000\000\360?\000\000\000\000\000\000\000\000\000\000\000\000\000\000\000\000\000\000\000\000\000\000\000\000\000\000\000\000\000\000\000\000\000\000\000\000\000\000\000\000\000\000\000\000\000\000\000\000\000\000\000\000\000\000\000\000\000\000\000\000\000\000\000\000\000\000\000\000\000\000\000\000\000\000\000\000\000\000\000\000\000\000\000\000\000\000\000\000\000\000\000\000\000\000\000\000\000\000\000\000\000\000\000\000\000\000\000\000\000\000\000\000\000\000\000\000\000\000\000\000\000\000\000\000\000\000\000\000\000\000\000\000\000\000\000\000\000\000\000\000\000\000\000\000\000\000\000\000\000\000\000\000\000\000\000\000\000\000\000\000\000\000\000\000\000\000\000\000\000\000\000\000\000\000\000\000\000\000\000\000\000\000\000\000\000\000\000\000\000\000\000\000\000\000\000\000\000\000\000\000\000\000\000\000\000\000\000\000\000\000\000\000\000\000\000\000\000\000\000\000\000\000\000\000\000\000\000\000\000\000\000\000\000\000\000\000\000\000\000\000\000\000\000\000\000\000\000\000\000\000\000\000\000\000\000\000\000\000\000\000\000\000\000\000\000\000\000\000\000\000\000\000\000\000\000\000\000\000\000\000\000\000\000\000\000\000\000\000\000\000\000\000\000\000\000\000\000\000\000\000\000\000\000\000\000\000\000\000\000\000\000\000\000\000\000\000\000\000\000\000\000\000\000\000\000\000\000\000\000\000\000\000\000\000\000\000\000\000\000\000\000\000\000\000\000\000\000\000\000\000\000\000\000\000\000\000\000\000\000\000\000\000\000\000\000\000\000\000\000\000\000\000\000\000\000\000\000\000\000\000\000\000\000\000\000\000\000\000\000\000\000\000\000\000\000\000\000\000\000\000\000\000\000\000\000\000\000\000\000\000\000\000\000\000\000\000\000\000\000\000\000\000\360?\000\000\000\000\000\000\000\000\000\000\000\000\000\000\000\000\000\000\000\000\000\000\000\000\000\000\000\000\000\000\000\000\000\000\000\000\000\000\000\000\000\000\000\000\000\000\000\000\000\000\000\000\000\000\000\000\000\000\000\000\000\000\000\000\000\000\000\000\000\000\000\000\000\000\000\000\000\000\360?\000\000\000\000\000\000\000\000\000\000\000\000\000\000\000\000\000\000\000\000\000\000\000\000\000\000\000\000\000\000\000\000\000\000\000\000\000\000\000\000\000\000\000\000\000\000\000\000\000\000\000\000\000\000\000\000\000\000\000\000\000\000\000\000\000\000\000\000\000\000\000\000\000\000\000\000\000\000\000\000\000\000\000\000\000\000\000\000\000\000\000\000\000\000\000\000\000\000\000\000\000\000\000\000\000\000\000\000\000\000\000\000\000\000\000\000\000\000\000\000\000\000\000\000\000\000\000\000\000\000\000\000\000\000\000\000\000\000\000\000\000\000\000\000\000\000\000\000\000\000\000\000\000\000\000\000\000\000\000\000\000\000\000\000\000\000\360?\000\000\000\000\000\000\000\000\000\000\000\000\000\000\000\000\000\000\000\000\000\000\000\000\000\000\000\000\000\000\000\000\000\000\000\000\000\000\000\000\000\000\000\000\000\000\000\000\000\000\000\000\000\000\000\000\000\000\000\000\000\000\000\000\000\000\000\000\000\000\360?\000\000\000\000\000\000\000\000\000\000\000\000\000\000\000\000\000\000\000\000\000\000\000\000\000\000\000\000\000\000\000\000\000\000\000\000\000\000\000\000\000\000\000\000\000\000\000\000\000\000\000\000\000\000\000\000\000\000\000\000\000\000\000\000\000\000\000\000\000\000\000\000\000\000\000\000\000\000\000\000\000\000\000\000\000\000\000\000\000\000\000\000\000\000\000\000\000\000\000\000\000\000\000\000\000\000\000\000\000\000\000\000\000\000\000\000\000\000\000\000\000\000\000\000\000\000\000\000\000\000\000\000\000\000\000\000\000\000\000\000\000\000\000\000\000\000\000\000\000\000\000\000\000\000\000\000\000\000\000\000\000\000\000\000\000\000\000\000\000\000\000\000\000\000\000\000\000\000\000\000\000\000\000\000\000\000\000\000\000\000\000\000\000\000\000\000\000\000\000\000\000\000\000\000\000\000\000\000\000\000\000\000\000\000\000\000\000\000\000\000\000\000\000\000\000\000\000\000\000\000\000\000\000\000\000\000\000\000\000\000\000\000\000\000\000\000\000\000\000\000\000\000\000\000\000\000\000\000\000\000\000\000\000\000\000\000\000\000\000\000\000\000\000\000\000\000\000\000\000\000\000\000\000\000\000\000\000\000\000\000\000\000\000\000\000\000\000\000\000\000\000\000\000\000\000\000\000\000\000\000\000\000\000\000\000\000\000\000\000\000\000\000\000\000\000\000\000\000\000\000\000\000\000\000\000\000\000\000\000\000\000\000\000\000\000\000\000\000\000\000\000\000\000\000\000\000\000\000\000\000\000\000\000\000\000\000\000\000\000\000\000\000\000\000\000\000\000\000\000\000\000\000\000\000\000\000\000\000\000\000\000\000\000\000\000\000\000\000\360?\000\000\000\000\000\000\000\000\000\000\000\000\000\000\000\000\000\000\000\000\000\000\000\000\000\000\000\000\000\000\360?\000\000\000\000\000\000\000\000\000\000\000\000\000\000\000\000\000\000\000\000\000\000\000\000\000\000\000\000\000\000\000\000\000\000\000\000\000\000\000\000\000\000\000\000\000\000\000\000\000\000\000\000\000\000\000\000\000\000\000\000\000\000\000\000\000\000\000\000\000\000\000\000\000\000\000\000\000\000\000\000\000\000\000\000\000\000\000\000\000\000\000\000\000\000\000\000\000\000\000\000\000\000\000\000\000\000\000\000\000\000\000\000\000\000\000\000\000\000\000\000\000\000\000\000\000\000\000\000\000\000\000\000\000\000\000\000\000\000\000\000\000\000\360?\000\000\000\000\000\000\000\000\000\000\000\000\000\000\000\000\000\000\000\000\000\000\000\000\000\000\000\000\000\000\000\000\000\000\000\000\000\000\000\000\000\000\000\000\000\000\000\000\000\000\000\000\000\000\000\000\000\000\000\000\000\000\360?\000\000\000\000\000\000\000\000\000\000\000\000\000\000\000\000\000\000\000\000\000\000\000\000\000\000\000\000\000\000\000\000\000\000\000\000\000\000\000\000\000\000\000\000\000\000\000\000\000\000\000\000\000\000\000\000\000\000\000\000\000\000\000\000\000\000\000\000\000\000\000\000\000\000\000\000\000\000\000\000\000\000\000\000\000\000\000\000\000\000\000\000\000\000\000\000\000\000\000\000\000\000\000\000\000\000\000\000\000\000\000\000\000\000\000\000\000\000\000\000\000\000\000\000\000\000\000\000\000\000\000\000\000\000\000\000\000\000\000\000\000\000\000\000\000\000\000\000\000\000\000\000\000\000\000\000\000\000\000\000\000\000\000\000\000\000\000\000\000\000\000\000\000\000\000\000\000\000\000\000\000\000\000\000\000\000\000\000\000\000\000\000\000\000\000\000\000\000\000\000\000\000\000\000\000\000\000\000\000\000\000\000\000\000\000\000\000\000\000\000\000\000\000\000\000\000\000\000\000\000\000\000\000\000\000\000\000\000\000\000\000\000\000\000\000\000\000\000\000\000\000\000\000\000\000\000\000\000\000\000\000\000\000\000\000\000\000\000\000\000\000\000\000\000\000\000\000\000\000\000\000\000\000\000\000\000\000\000\000\000\000\000\000\000\000\000\000\000\000\000\000\000\000\000\000\000\000\000\000\000\000\000\000\000\000\000\000\000\000\000\000\000\000\000\000\000\000\000\000\000\000\000\000\000\000\000\000\000\000\000\000\000\360?\000\000\000\000\000\000\000\000\000\000\000\000\000\000\000\000\000\000\000\000\000\000\000\000\000\000\000\000\000\000\000\000\000\000\000\000\000\000\000\000\000\000\000\000\000\000\000\000\000\000\000\000\000\000\000\000\000\000\000\000\000\000\360?\000\000\000\000\000\000\000\000\000\000\000\000\000\000\000\000\000\000\000\000\000\000\000\000\000\000\000\000\000\000\360?\000\000\000\000\000\000\000\000\000\000\000\000\000\000\360?\000\000\000\000\000\000\000\000\000\000\000\000\000\000\000\000\000\000\000\000\000\000\000\000\000\000\000\000\000\000\000\000\000\000\000\000\000\000\000\000\000\000\000\000\000\000\000\000\000\000\000\000\000\000\000\000\000\000\000\000\000\000\000\000\000\000\000\000\000\000\360?\000\000\000\000\000\000\000\000\000\000\000\000\000\000\000\000\000\000\000\000\000\000\000\000\000\000\000\000\000\000\000\000\000\000\000\000\000\000\000\000\000\000\000\000\000\000\000\000\000\000\000\000\000\000\000\000\000\000\000\000\000\000\000\000\000\000\000\000\000\000\000\000\000\000\000\000\000\000\000\000\000\000\000\000\000\000\000\000\000\000\000\000\000\000\000\000\000\000\000\000\000\000\000\000\000\000\000\000\000\000\000\000\000\000\000\000\000\000\360?\000\000\000\000\000\000\000\000\000\000\000\000\000\000\000\000\000\000\000\000\000\000\000\000\000\000\000\000\000\000\000\000\000\000\000\000\000\000\000\000\000\000\000\000\000\000\000\000\000\000\000\000\000\000\000\000\000\000\000\000\000\000\000\000\000\000\000\000\000\000\000\000\000\000\000\000\000\000\000\000\000\000\000\000\000\000\360?\000\000\000\000\000\000\000\000\000\000\000\000\000\000\000\000\000\000\000\000\000\000\000\000\000\000\000\000\000\000\000\000\000\000\000\000\000\000\000\000\000\000\000\000\000\000\000\000\000\000\000\000\000\000\000\000\000\000\000\000\000\000\000\000\000\000\000\000\000\000\000\000\000\000\000\000\000\000\000\000\000\000\000\000\000\000\000\000\000\000\000\000\000\000\000\000\000\000\000\000\000\000\000\000\000\000\000\000\000\000\000\000\000\000\000\000\000\000\000\000\000\000\000\000\000\000\000\000\000\000\000\000\000\000\000\000\000\000\000\000\000\000\000\000\000\000\000\000\000\000\000\000\000\000\000\000\000\000\000\000\000\000\000\000\000\000\000\000\000\000\000\000\000\000\000\000\000\000\000\000\000\000\000\000\000\000\000\000\000\000\000\000\000\000\000\000\000\000\000\000\000\000\000\000\000\000\000\000\000\000\000\000\000\000\000\000\000\000\000\000\000\000\000\000\000\000\000\000\000\000\000\000\000\000\000\000\000\000\000\000\000\000\000\000\000\000\000\000\000\000\000\000\000\000\000\000\000\000\000\000\000\000\000\000\000\000\000\000\000\000\000\000\000\000\000\000\000\000\000\000\000\000\000\000\000\000\000\000\000\000\000\000\000\000\000\000\000\000\000\000\000\000\000\000\000\000\000\000\000\000\000\000\000\000\000\000\000\000\360?\000\000\000\000\000\000\000\000\000\000\000\000\000\000\000\000\000\000\000\000\000\000\000\000\000\000\000\000\000\000\000\000\000\000\000\000\000\000\000\000\000\000\000\000\000\000\000\000\000\000\000\000\000\000\000\000\000\000\000\000\000\000\000\000\000\000\000\000\000\000\000\000\000\000\000\000\000\000\000\000\000\000\000\000\000\000\000\000\000\000\000\000\000\000\000\000\000\000\000\000\000\000\360?\000\000\000\000\000\000\000\000\000\000\000\000\000\000\000\000\000\000\000\000\000\000\000\000\000\000\000\000\000\000\000\000\000\000\000\000\000\000\000\000\000\000\000\000\000\000\000\000\000\000\000\000\000\000\000\000\000\000\000\000\000\000\360?\000\000\000\000\000\000\000\000\000\000\000\000\000\000\360?\000\000\000\000\000\000\000\000\000\000\000\000\000\000\000\000\000\000\000\000\000\000\000\000\000\000\000\000\000\000\000\000\000\000\000\000\000\000\360?\000\000\000\000\000\000\000\000\000\000\000\000\000\000\000\000\000\000\000\000\000\000\000\000\000\000\000\000\000\000\000\000\000\000\000\000\000\000\360?\000\000\000\000\000\000\000\000\000\000\000\000\000\000\000\000\000\000\000\000\000\000\000\000\000\000\000\000\000\000\000\000\000\000\000\000\000\000\000\000\000\000\000\000\000\000\000\000\000\000\000\000\000\000\000\000\000\000\000\000\000\000\000\000\000\000\000\000\000\000\000\000\000\000\000\000\000\000\000\000\000\000\000\000\000\000\000\000\000\000\000\000\000\000\000\000\000\000\000\000\000\000\000\000\000\000\000\000\000\000\000\000\000\000\000\000\000\000\000\000\000\000\000\000\000\000\000\000\000\000\000\000\000\000\000\000\000\000\000\000\000\000\360?\000\000\000\000\000\000\000\000\000\000\000\000\000\000\000\000\000\000\000\000\000\000\000\000\000\000\000\000\000\000\000\000\000\000\000\000\000\000\000\000\000\000\000\000\000\000\000\000\000\000\000\000\000\000\000\000\000\000\000\000\000\000\000\000\000\000\000\000\000\000\000\000\000\000\000\000\000\000\000\000\000\000\000\000\000\000\000\000\000\000\000\000\000\000\000\000\000\000\000\000\000\000\000\000\000\000\000\000\000\000\000\000\000\000\000\000\000\000\000\000\000\000\000\000\000\000\000\000\000\000\000\000\000\000\000\000\000\000\000\000\000\000\000\000\000\000\000\000\000\000\360?\000\000\000\000\000\000\000\000\000\000\000\000\000\000\000\000\000\000\000\000\000\000\360?\000\000\000\000\000\000\000\000\000\000\000\000\000\000\000\000\000\000\000\000\000\000\000\000\000\000\000\000\000\000\000\000\000\000\000\000\000\000\000\000\000\000\000\000\000\000\000\000\000\000\000\000\000\000\000\000\000\000\000\000\000\000\000\000\000\000\000\000\000\000\000\000"
      }
    }
  }
}
node {
  name: "normalize_element/component_3"
  op: "Const"
  device: "/device:CPU:0"
  attr {
    key: "_output_shapes"
    value {
      list {
        shape {
          dim {
            size: 404
          }
        }
      }
    }
  }
  attr {
    key: "dtype"
    value {
      type: DT_DOUBLE
    }
  }
  attr {
    key: "value"
    value {
      tensor {
        dtype: DT_DOUBLE
        tensor_shape {
          dim {
            size: 404
          }
        }
        tensor_content: "c\321tv2\270\363?\355\273\"\370\337J\226?\326s\322\373\306\227\023@+j0\r\303G\244?\226>tA}\213\r@]\212\253\312\276+\322?Ve\337\025\301_\"@\210\205Z\323\274c\020@Z\365\271\332\212=\001@\255Q\017\321\350\016\372?\342\314\257\346\0001#@V\016-\262\235\3172@W`\310\352V\317\301?\213\340\177+\331\261\016@\'\302\206\247W\312\330?\3122\304\261.bR@d\222\221\263\260\'\032@\004\377[\311\216\215\260?3\304\261.n\243\241?\017\227\034wJ\007\303?x\234\242#\271\324B@\263\315\215\351\tK\234?\333m\027\232\3534\222?\211\265\370\024\000\343y?2\254\342\215\314#\237?\204*5{\240\245#@\321W\220f,\232\266?5\007\010\346\350\361\233?\034_{fI\200\345?\372\263\037)\"\303\306?9\326\305m4\200\247??RD\206U\\\024@\303G\304\224H\002\037@[_$\264\345\334\360?\337\375\361^\2652\241?j\207\277&k\324\325?\331Z_$\264\345\352?\314bb\363qm\362?\360P\024\350\023y\326?\347\030\220\275\336\375\271?\310$#gaO\303?\0221%\222\350e\304?J\265O\307c\006\252??W[\261\277,&@\2343\242\2647\270*@\031\347oB!\002\350?$EdX\305\033\325?\322\000\336\002\t\n\360?\210c]\334F\003\345?\267b\177\331=\331\033@\347\000\301\034=~\257?HP\374\030s\327,@\342\222\343N\351`\340?\307\021k\361)\000\246?\027\267\321\000\336\202\002@(D\300!T\251\261?\316\302\236v\370\373 @d#\020\257\353w\035@g\233\033\323\023\226\270?\036\376\232\254Q\017\261?\201&\302\206\247W\262?-!\037\364lV\275?\236\357\247\306Kw$@\'\240\211\260\341\351\305?Q\367\001Hm\002\023@4\277\232\003\004S\026@\"\303*\336\310<\357?[\323\274\343\024\r6@0L\246\nF\325#@\224j\237\216\307\014\330?S\256\360.\027\361\305?\212\216\344\362\037R&@<\203\206\376\t.\266?\037\021S\"\211^\324?\003[%X\034\316\371?}\263\315\215\351\t\313?c\177\331=y\270/@333333\354?_\2652\341\227\372\305?\341\013\223\251\202\221\n@\004\377[\311\216\215\300?\262\235\357\247\306K\341?V\202\305\341\314\257\351?Qf\203L2r\206?R\'\240\211\260\341\342?\244\210\014\253x#\243?>\350\331\254\372|\027@\r\340-\220\240\370\241?P6\345\n\357\362\002@\335A\354L\2413\034@\241\271N#-\325\026@Q\024\350\023y\222\224?\257Z\231\360K\375\264?\004\342u\375\202\335\260?\221,`\002\267\356\276?\201&\302\206\247W\272?T\343\245\233\304 \240?\253\t\242\356\003\220\252?0\330\r\333\026e\226?Tt$\227\377\220\236?6\310$#ga\257?)\350\366\222\306h\342?\347\251\016\271\031n\336?\000\343\0314\364O\300?\376e\367\344a\221I@\205|\320\263Y\365\301?4\235\235\014\216\222\031@b\326\213\241\234h\277?\332\003\255\300\220\225!@\206\346:\215\264T\306?\217\245\017]P\337\320?M\370\245~\336\024\000@\215\356 v\246\320\271?\177\373:p\316\210\322?\354/\273\'\017\013\225?\314\356\311\303B\255\261?\327\335<\325!\027\034@\371\203\201\347\336\303\305?\346\221?\030x\356\305?\323\244\024t{I\273?-\262\235\357\247\306\253?D\372\355\353\3009\347?\320\263Y\365\271Z.@\035\217\031\250\214\177\217?\274\226\220\017z>V@\367\314\222\00055\366?Gw\020;S\350\254?I\272f\362\3156\267?M\363\216St$\351?\260U\202\305\341\314\257?\225\361\3573.\034\310?Hm\342\344~\207\302?S\313\326\372\"\241\335?)\\\217\302\365(\264?)\320\'\362$\351\306?\202\250\373\000\2446\271?\253>W[\261\277/@RD\206U\274\221\343?\215\264T\336\216p\272?\t\212\037c\356\372P@\217\337\333\364g?\320?\027\361\235\230\365b\300?\265\211\223\373\035J!@\237q\341@H\026\363?\353V\317I\357\033\257?_\014\345D\273\n\305?\376\324x\351&1\300?\367\257\2544)e\021@}\320\263Y\365\031,@;\215\264T\336\216\310?\237v\370k\262f @\253\347\244\367\215\257\235?\336Y\273\355Bs\275?g\270\001\237\037F\250?\331\231B\3475v\301?\215\234\205=\355\360\367?\210\205Z\323\274\303D@{\332\341\257\311\032\265?A\361c\314]\013+@\260U\202\305\341\314\313?\323\366\257\2544)\311?B>\350\331\254\372\254??RD\206U\274\350?-x\321W\220f\314?\022\245\275\301\027&\223?\202sF\224\366\346\'@\223\214\234\205=\355\240?1\261\371\2706T\300?\220\332\304\311\375\016\245?\304\010\341\321\306\021\273?\341@H\0260\201\253?\002Hm\342\344~\267?H\376`\340\271W\023@\241J\315\036h\005\246?R\325\004Q\367\001\270?[\224\331 \223\214\326?\344\024\035\311\345\237\'@\351&1\010\254\034\302?b\204\360h\343\010\003@\n\334\272\233\247:\274?_$\264\345\\\252\026@\367\344a\241\3264\267?\025\221a\025od\332?p\231\323e1\261\261?\270\222\035\033\201x\265?/n\243\001\274\0254@l\317,\tPS\303?\344,\354i\207\277\320?{\240\025\030\262\272\331?sh\221\355|?\275?\366\356\217\367\252\225\356?\024\355*\244\374\244\340?\035=~o\323\237\265?\205\0108\204*5\263?\366]\021\374o%\323?\201[w\363T\007\364?Y4\235\235\014\216\202?gDio\360\2457@\215\013\007B\262\200\251?\314bb\363qm\260?\361\272~\301n\330\246?w\020;S\350<\006@\345\3259\006d\257\267?:X\377\3470_\350?kH\334c\351C\353?#\241-\347R|\023@\220\275\336\375\361\336\032@\265l\255/\022\332\316?\273~\301n\330\266\300?\345\355\010\247\005/\306?M\241\363\032\273D\265?,}\350\202\372\006#@\'1\010\254\034Z\264?H\277}\0358g\002@\177\274W\255L\370\037@#\370\337Jvl\264?\371\367\031\027\016\204\264?\231\323e1\261\371\300?\260U\202\305\341\314\366?\214\271k\t\371\240\327?\345\355\010\247\005\177 @v\375\202\335\260M @\340\333\364g?R\304?O\314z1\224\023\344?{1\224\023\355*\022@\3377\276\366\314\222\240?Yni5$\356\241?\317\203\273\263v[\037@\225+\274\313E|\365?aO;\37459\022@\232\231\231\231\231\231\271?\240\211\260\341\351\225\320?\324+e\031\342X\247?I\272f\362\3156\325?\276\331\346\306\364\204\245?\314@e\374\373\214\337?\3377\276\366\314\222\003@\260U\202\305\341\254\022@\226x@\331\224\013\021@]\376C\372\355\2333@->\005\300x\006\362?0*\251\023\320d8@\022\245\275\301\027&\325?\272f\362\31567\302?d#\020\257\353\027\332?]\304wb\326\213\241?\224\3367\276\366\314\272?\007_\230L\025,\025@\314]K\310\007-C@I\235\200&\302&/@\017\326\3779\314\027\362?*\221D/\243\230\003@vq\033\r\340\3351@\372~j\274t\223.@\200\267@\202\342\247<@\2201w-!\237\366?\321\226s)\256*\273?\306\341\314\257\346\000\261?\313\271\024W\225\235\035@Uj\366@+0\264?\213\246\263\223\301Q\242?\240l\312\025\336\245\002@Dn\206\033\360\371\261?)?\251\366\351x\254?\375M(D\300!\244?2\311\310Y\330\323\324?\304\224H\242\227Q\363?\t3m\377\312J\243?\2201w-!\037\224?q=\n\327\243p\235?\201C\250R\263G\014@\316\245\270\252\354\273\242?\034\323\023\226x@\251?\335^\322\030\255c\r@\231\r2\311\310Y\270?\371\240g\263\352s\305?\177M\326\250\207h\352?\266\333.4\327i\310?(a\246\355_Y\301?\004s\364\370\275M\267?\016\2760\231*\030\351?\373\221\"2\254\342\333?\0054\0216<\3158@\356_YiR\n\232?\320\325V\354/[+@,e\031\342X7&@\217\344\362\037\322\3170@2U0*\251\323+@\246\325\220\270\307r#@!\223\214\234\205=\321?\273\270\215\006\360v\"@\273\'\017\013\265\306\031@`\260\033\266-\312\300?\313\326\372\"\241-\247?\212Y/\206r\242\305?#gaO;\374\245?\321W\220f,\232\341?\034\010\311\002&\260\036@Z\273\355Bs\235\246?_)\313\020\307\232)@\336\223\207\205Z\223\r@:z\374\336\246?\303?_\007\316\031Q\332\213?\3745Y\243\036\242\261?\273\325s\322\373&\031@C\377\004\027+j\344?\3230|DL\211\244?\225\232=\320\n\214\006@\202\220,`\002\267\266?\300\004n\335\315S\215?,H3\026Mg\313?A\237\310\223\244k\246?\204d\001\023\270u\267?z\245,C\034\253%@\312\246\\\341].\324?\1770\360\334{\270\314?u\315\344\233mn\314??\000\251M\234\334\340?F\261\334\322jH\214?;\3745Y\243\236\032@\312\303B\255i\336\301?F\266\363\375\324\210 @?\035\217\031\250\214\257?\351\361{\233\376l\r@\365\326\300V\t\026\313?\207\242@\237\310\223\363?\327\206\212q\376&\344?MJA\267\2274\246??\343\302\201\220\034 @\277`7l[\224\231?-`\002\267\356\346\251?H\371I\265O\007\003@g\270\001\237\037F\334?i\000o\201\004\305\303?k\324C4\272\343\020@u\002\232\010\033\236\322?\r\303G\304\224H\341?[\261\277\354\236<\254?G\254\305\247\000\310\"@w\241\271N#-\321?\224\301Q\362\352\034\303?\377\004\027+j\260\021@{Ic\264\216\252\334?\010=\233U\237\253\343?\313\204_\352\347M\370?\231d\344,\354i\367?\316\337\204B\004\034\242?,e\031\342X\2674@\205\224\237T\373t\330?\223W\347\030\220\275\216?U\336\216pZ\360\001@\321tv28J\266?\322\373\306\327\236Y\242?n4\200\267@\202\242?u\345\263<\017\256\026@\034\360\371a\204\360\260?\270\257\003\347\214(\265?\202\250\373\000\2446\261?k\324C4\272\303\025@\032\335A\354L\241\273?k`\253\004\213\303\325?h\005\206\254n\365\264?\315;N\321\221\\\326?\000o\201\004\305\217\261?;\001M\204\rO\t@\215\321:\252\232 \320?\024\355*\244\374\244\212?\313\370\367\031\027\016\274?\200`\216\036\277\267\251?\301n\330\266(3\016@\267E\231\r2\311\314?\275\030\312\211v\025\005@*t^c\227\250\340?\234\242#\271\374\207\322?N\356w(\n\364\261?\325\347j+\366\227\255?A\016J\230i\373\247?\344f\270\001\237?\023@S\226!\216uq\253?\266\370\024\000\343\031\300?\263\315\215\351\tK\351?\203i\030>\"\246\324?\267\234KqU\331\341?k\016\020\314\321\343\247?\343\252\262\357\212\340\237?+\030\225\324\th\306?Dio\360\205\331#@2ZGU\023D\275?\366]\021\374o%\253?\3578EGr\371\317?\033\236^)\313\3609@j\366@+0d\301?\262KTo\rl\323?1%\222\350e4\033@e\215z\210F\367!@\326\305m4\200\337F@\325\347j+\366W%@J\357\033_{f\315?\001\336\002\t\212\1772@o*Ral!\314?9b->\005\300\304?\255n\365\234\364\276\241?\375\274\251H\2051\001@\270\222\035\033\201x\215?"
      }
    }
  }
}
node {
  name: "normalize_element/component_4"
  op: "Const"
  device: "/device:CPU:0"
  attr {
    key: "_output_shapes"
    value {
      list {
        shape {
          dim {
            size: 404
          }
        }
      }
    }
  }
  attr {
    key: "dtype"
    value {
      type: DT_DOUBLE
    }
  }
  attr {
    key: "value"
    value {
      tensor {
        dtype: DT_DOUBLE
        tensor_shape {
          dim {
            size: 404
          }
        }
        tensor_content: "\377\262{\362\260\320\017@\024\256G\341z\024\031@R\270\036\205\353Q\365?\305\376\262{\362\360\027@(~\214\271k\211\004@\030\225\324\th\342\022@\014\223\251\202QI\371?\202\342\307\230\273\226\366?N\321\221\\\376C\370?d\314]K\310\007\367?\323Mb\020X9\372?\006\022\024?\306\334\370?0*\251\023\320\304\004@w\276\237\032/]\002@\314\177H\277}\035\374?HP\374\030s\327\374?\314]K\310\007=\363?\344\203\236\315\252O\037@\024\256G\341z\024\031@b\241\3264\3578\006@\221~\373:p\316\375?\320\263Y\365\271\232\025@[\323\274\343\024\235\036@\\\217\302\365(\\\020@\366(\\\217\302u\026@\356|?5^\272\365?\313\241E\266\363=\026@\256\330_vO\336\023@\356|?5^\272\022@\373\\m\305\3762\003@0*\251\023\320D\035@\374\030s\327\022\362\002@\026\373\313\356\311C\006@t$\227\377\220\376\021@\320\263Y\365\271\232\025@\030\225\324\th\342\022@\341\013\223\251\202\321\021@#J{\203/L\016@\030\225\324\th\342\022@\241g\263\352s5\020@\030\225\324\th\"\375?\340\276\016\2343\342\026@\023\362A\317f\325\031@\347\214(\355\r\276\375?\3019#J{\203\374?)\355\r\2760\231\021@\212\037c\356Z\302\003@\333\371~j\274\364\020@\240\211\260\341\351\025\000@m\347\373\251\361\322\376?\253>W[\261?\023@\276\301\027&S\005\000@d;\337O\215\227\020@0*\251\023\320D\035@@\244\337\276\016\034\003@\000o\201\004\305\017\002@]\376C\372\355k\000@\2343\242\2647\370\376?\031\342X\027\267\021\021@\036\026jM\363\016\t@\334\327\201sF\224\001@\327\243p=\nW\017@w\276\237\032/]\001@\343\245\233\304 \260\001@?\306\334\265\204|\003@I\235\200&\302\206\002@\370S\343\245\233\304\002@$\271\374\207\364\333\375?\304\261.n\243\001\370?R\270\036\205\353Q\r@\327\022\362A\317f\024@V}\256\266b\377\000@\263{\362\260P\353\031@\351H.\377!\375\017@\243\001\274\005\022\024\016@\243\001\274\005\022T\030@\313\020\307\272\270\215\376?=\233U\237\253\255\377?\240\032/\335$F\033@0L\246\nF%\365?HP\374\030s\327\027@`\345\320\"\333\371\006@\254\034Zd;_\016@B>\350\331\254:\035@\346\256%\344\203\236\002@\023\362A\317f\325\031@\300\354\236<,\324\372?F\266\363\375\324x\024@\345\362\037\322o_\367?\"lxz\245,\000@e\252`TR\247\n@F\266\363\375\324x\024@\373\313\356\311\303\002\026@!\260rh\221\355\005@g\325\347j+\366\013@1\010\254\034Z$\034@[\323\274\343\024\235\036@\241g\263\352s\265\021@p\316\210\322\336\340\030@\253>W[\261?\030@\360\026HP\374\330\024@0\273\'\017\013\265\016@\031s\327\022\362\001\020@\340\276\016\2343\342\026@\317\367S\343\245\233\366?\365JY\2068\226\035@\331\316\367S\343\245\001@\340\276\016\2343\342\026@5^\272I\014\202\000@\243\222:\001M\004\017@\225e\210c]\\\004@Y\027\267\321\000^\000@\354Q\270\036\205k\005@O\257\224e\210c\006@\216uq\033\r`\"@\253>W[\261?\030@<N\321\221\\\376\375?\256\330_vO^\032@\2068\326\305m\264\003@\316\210\322\336\340+%@\n\327\243p=\212\n@\254\034Zd;_\016@\033\r\340-\220\240\376?\016\2760\231*X\031@D\213l\347\373\251\366?\354Q\270\036\205\353\017@\221~\373:p\016\024@\263{\362\260P\353\031@q\033\r\340-\020\001@\275R\226!\216\225!@\327\022\362A\317f\024@P\374\030s\327\022\006@\254\034Zd;_\r@;\001M\204\rO\016@O\257\224e\210c\006@\351\267\257\003\347\014\000@\312T\301\250\244N\370?7\211A`\345\320\374?\356|?5^\272\033@\221~\373:p\316\366?{\024\256G\341z\027@\330\201sF\224v\003@\360\205\311T\301\250\374?^\272I\014\002+\002@\327\243p=\nW\001@u\223\030\004VN\037@\352\225\262\014q\354\037@\277}\0358gD\010@q=\n\327\243p\370?\'\240\211\260\341\251\025@yX\2505\315;\006@\275R\226!\216\225!@g\325\347j+\366\013@\n\327\243p=\n\004@q\033\r\340-\220\017@\201\004\305\2171w\371?Gr\371\017\351\267\371?\246\nF%u\302\030@\317f\325\347j+\370?\361\364JY\2068\r@#\333\371~j\034 @\035\311\345?\244_\013@\375\366u\340\234\321\021@\236\357\247\306Kw\021@\374\030s\327\022\022!@q\033\r\340-\220\364?\253>W[\261?\023@1\010\254\034Z$\034@_\007\316\031Q\232\025@\210\205Z\323\274\343\375?HP\374\030s\327\027@\010=\233U\237+\005@Gr\371\017\3517\t@\316\210\322\336\340+%@\313\020\307\272\270\315\025@\270@\202\342\307\230\375?Nb\020X9\264\374?\340\276\016\2343\342\026@\277\016\2343\242\264\366?\364\375\324x\351\346\034@\231*\030\225\324\t\000@\327\243p=\nW\017@D\372\355\353\300\271\t@\263{\362\260P\353\031@\337\340\013\223\251\002\022@\325x\351&1\010\367?B>\350\331\254\372\005@y\351&1\010\254\006@\303\365(\\\217B\014@+\030\225\324\t\350\n@\216\006\360\026H\320\021@\002+\207\026\331N\002@\314\177H\277}\235\005@\t\033\236^)\313\010@\236\357\247\306K\267\021@\303\323+e\031b\016@B>\350\331\254:\035@\005\305\2171w-\366?n4\200\267@B\033@\213\375e\367\344\341\n@_\007\316\031Q\232\025@\177\373:p\316\210\365?\246\nF%u\302\030@b\020X9\264\310\377?\224\366\006_\230\014\020@\032\300[ Aq\002@\202\342\307\230\273\226\002@\'\240\211\260\341\251\025@R\270\036\205\353\321\003@\313\020\307\272\270\r\003@H\277}\0358\347\007@d]\334F\003\370\003@\226\262\014q\254k%@\315\314\314\314\314\314\000@+\366\227\335\223\207\370?\344\203\236\315\252\217\020@\267b\177\331=y\017@\t\212\037c\356\332\000@7\032\300[ A\374?\341\013\223\251\202\321\014@\2201w-!\237\003@J{\203/L\246\373?.\220\240\3701&\025@t$\227\377\220\376\021@0L\246\nF%\004@\253>W[\261?\030@\326\305m4\200w\024@0\273\'\017\013\265\007@=,\324\232\346\035\374?\344\203\236\315\252\317\371?\326\305m4\200\367\025@\"\375\366u\340\234\374?\204\rO\257\224\345\010@e\031\342X\0277\r@O@\023a\303S\r@\n\327\243p=\212\n@\361c\314]K\310\373?\367u\340\234\021\245\004@\030&S\005\243\022\004@\310\230\273\226\220\017\365?\245N@\023a\303\371?(\017\013\265\246y\367?e\031\342X\0277\r@Zd;\337O\r\002@\374\251\361\322Mb\010@\"lxz\245\354\024@\022\245\275\301\027&\023@\201&\302\206\247W\001@\023\362A\317f\325\367?\277}\0358gD\007@;\337O\215\227\356\020@\232\231\231\231\231\031\002@\005\305\2171w-\366?\024?\306\334\265\204\365?\3122\304\261.n\371?Z\365\271\332\212\375\373?\016\2760\231*X\031@\373:p\316\210R\007@\365\333\327\201sF\367?\326\305m4\200w\024@\363\037\322o_\307\022@\267b\177\331=y\370?8gDiop\014@\344\203\236\315\252O\037@[\261\277\354\236\274\010@\000\000\000\000\000\000\375?c\356ZB>h\003@#\333\371~j<\035@=\233U\237\253-\"@O@\023a\303S\r@!\260rh\221\355\373?_\007\316\031Q\232\025@g\325\347j+v\t@\254\213\333h\000\357\017@\337\340\013\223\251\002\022@\232\010\033\236^)\022@\376e\367\344a\241\000@u\223\030\004VN\037@\313\241E\266\363\375\031@\355\236<,\324\232\005@\271\215\006\360\026\010\021@\000\000\000\000\000\000\017@\221\017z6\253>\373?=\233U\237\253\355\026@\305\2171w-!\375?Dio\360\205\311\362?\2505\315;N\321\366?\236^)\313\020\307\001@\276\301\027&S\205\000@C\034\353\3426\032\n@\277\016\2343\242\264\362?|\362\260Pk\232\001@B>\350\331\254\372\000@\315\314\314\314\314L\002@\245,C\034\353\342\377?\354Q\270\036\205\353\014@R\'\240\211\260\341\376?\030\225\324\th\"\372?\344\203\236\315\252O\037@\370\302d\252`T\376?(~\214\271k\t\374?xz\245,C\034\377?\363\037\322o_G\035@*:\222\313\177\310\004@\372~j\274t\223\000@\360\026HP\374\330\021@#\333\371~j<\035@\206\311T\301\250d\020@n4\200\267@B\033@J{\203/L\246 @\365JY\2068\226\035@\031\004V\016-r\032@.\220\240\3701&\025@\351&1\010\254\034\375?\326V\354/\273\'\007@\007\360\026HP\374\003@\374\251\361\322Mb\004@\326V\354/\273\'\007@\325\347j+\366\227\026@\216uq\033\r\340\005@\221\355|?5^\003@P\374\030s\327\022\362?\202sF\224\366\006 @\300\354\236<,\324\000@\017\2343\242\264\267\005@(~\214\271k\t\376?\024\256G\341z\324\022@n4\200\267@B\033@\000\221~\373:p\003@\2505\315;N\021\031@u\002\232\010\033\036\023@\230n\022\203\300\312\r@9\326\305m4\000\013@\212\037c\356ZB\037@(\017\013\265\246y\376?\'\302\206\247W\312\371?\204\rO\257\224\345\000@J\014\002+\207\026\020@\301\250\244N@\023\375?\025\035\311\345?$\007@\327\022\362A\317\346\034@\373:p\316\210R\004@e\031\342X\0277\r@\314\356\311\303B-\n@\262\235\357\247\306K\001@\177\373:p\316\210\377?\326\305m4\200\367\025@}\256\266b\177\331\362?D\372\355\353\300\271\t@\n\327\243p=\212\027@\307K7\211A`\003@\351&1\010\254\\\020@\031\004V\016-r\032@\326\305m4\200w\024@0\273\'\017\013\265\365?\353\3426\032\300\333\024@\373\313\356\311\303\002\026@\353\3426\032\300\333\024@HP\374\030s\327\002@b\241\3264\3578\006@\246\233\304 \260\362\000@g\325\347j+\366\013@R\270\036\205\353\321\010@g\325\347j+\366\013@\325x\351&1\210\010@\317f\325\347jk\021@\327\022\362A\317&\034@\261Pk\232w\034\003@U0*\251\023\220\032@F\266\363\375\324\370\006@\302\027&S\005c\031@\326V\354/\273\'\004@d;\337O\215\227\020@33333\263\014@\312\303B\255i^\013@o\022\203\300\312\241\006@\314]K\310\007\275\010@H\341z\024\256\307\004@n4\200\267@B\033@\243\222:\001MD\022@\310\007=\233U\037\005@\325\th\"lx\377?mV}\256\266\342\000@#\333\371~j<\035@\202sF\224\366\006 @\3274\3578E\307\016@/\335$\006\201\225\001@E\330\360\364J\331\006@7\211A`\345P\013@\212\260\341\351\225\262\372?\\\217\302\365(\\\372?\024\320D\330\360\364\020@\'\240\211\260\341\251\025@=\n\327\243p\275\005@\321\221\\\376C\372\000@\234\242#\271\374\207\372?\221~\373:p\316\377?\317f\325\347jk\021@\376\324x\351&1\362?\322o_\007\316Y\030@\236\357\247\306K\267\021@U0*\251\023\220\032@\r\340-\220\240\370\371?p\316\210\322\336\340\030@"
      }
    }
  }
}
node {
  name: "normalize_element/component_5"
  op: "Const"
  device: "/device:CPU:0"
  attr {
    key: "_output_shapes"
    value {
      list {
        shape {
          dim {
            size: 404
          }
        }
      }
    }
  }
  attr {
    key: "dtype"
    value {
      type: DT_DOUBLE
    }
  }
  attr {
    key: "value"
    value {
      tensor {
        dtype: DT_DOUBLE
        tensor_shape {
          dim {
            size: 404
          }
        }
        tensor_content: "H\341z\024\256G @=\n\327\243p=\000@\232\231\231\231\231\0312@\303\365(\\\217\302\024@\232\231\231\231\231\0312@\205\353Q\270\036\205\035@\232\231\231\231\231\0312@\024\256G\341z\2243@\024\256G\341z\2243@\244p=\n\327\3435@\232\231\231\231\231\0312@\232\231\231\231\231\0312@333333\020@\232\231\231\231\231\0312@fffff\2469@\232\231\231\231\231\0312@\232\231\231\231\231\0312@\354Q\270\036\205\353\001@=\n\327\243p=\000@\037\205\353Q\270\036!@\232\231\231\231\231\0312@\232\231\231\231\231\231\007@\205\353Q\270\036\205\367?{\024\256G\341z\002@\303\365(\\\217\302\024@\232\231\231\231\231\0312@{\024\256G\341z\037@H\341z\024\256G\034@H\341z\024\256G @\341z\024\256Ga#@H\341z\024\256G\025@\232\231\231\231\231\0312@\232\231\231\231\231\0312@H\341z\024\256G @\232\231\231\231\231\231\007@\205\353Q\270\036\205\035@H\341z\024\256G @H\341z\024\256G @\205\353Q\270\036\205\035@)\\\217\302\365\250)@=\n\327\243p\275;@\244p=\n\327\243\033@\303\365(\\\217\302\024@\232\231\231\231\231\0312@\232\231\231\231\231\0312@H\341z\024\256G @\244p=\n\327\3435@H\341z\024\256G @\303\365(\\\217\302\017@\232\231\231\231\231\0312@\303\365(\\\217\302\024@\232\231\231\231\231\0312@\315\314\314\314\314\314\030@H\341z\024\256G\025@\024\256G\341z\2243@fffff\2469@\232\231\231\231\231\0312@\232\231\231\231\231\0312@\244p=\n\327\243\031@333333\020@fffff\2469@\327\243p=\n\327\033@\232\231\231\231\231\0312@\037\205\353Q\270\036!@\232\231\231\231\231\0312@\232\231\231\231\231\0312@\244p=\n\327\3435@\232\231\231\231\231\0312@\232\231\231\231\231\0312@\256G\341z\024.%@\244p=\n\327\243\033@\232\231\231\231\231\0312@\205\353Q\270\036\205\013@\315\314\314\314\314\314#@H\341z\024\256G @{\024\256G\341z\037@\232\231\231\231\231\0312@\244p=\n\327\3435@\205\353Q\270\036\205\024@\024\256G\341z\2243@\327\243p=\n\327+@\303\365(\\\217\302\017@H\341z\024\256G @\000\000\000\000\000\000\002@\244p=\n\327\3435@\303\365(\\\217\302\024@\232\231\231\231\231\0312@q=\n\327\243p\005@\024\256G\341z\2243@\232\231\231\231\231\0312@\232\231\231\231\231\0312@q=\n\327\243p\005@\327\243p=\n\327+@\256G\341z\024\256\003@\037\205\353Q\270\036\007@\270\036\205\353Q\270\023@\205\353Q\270\036\205\367?\366(\\\217\302\365\021@q=\n\327\243p\007@q=\n\327\243p\001@\244p=\n\327\243\n@\315\314\314\314\314\314\030@\315\314\314\314\314\314#@\244p=\n\327\243\033@\232\231\231\231\231\0312@q=\n\327\243p\027@\232\231\231\231\231\0312@\244p=\n\327\243\033@\232\231\231\231\231\0312@\256G\341z\024.%@\037\205\353Q\270\036!@\024\256G\341z\2243@\205\353Q\270\036\005$@\341z\024\256Ga#@\256G\341z\024\256\347?q=\n\327\243p\001@\232\231\231\231\231\0312@{\024\256G\341z\037@\205\353Q\270\036\005$@\217\302\365(\\\217\376?333333\020@H\341z\024\256G @\232\231\231\231\231\0312@\000\000\000\000\000\000\016@\232\231\231\231\231\0312@H\341z\024\256G @)\\\217\302\365\250)@\205\353Q\270\036\205\013@\303\365(\\\217\302\017@\000\000\000\000\000\000\364?\244p=\n\327\243\033@\205\353Q\270\036\005$@\315\314\314\314\314\314\030@\205\353Q\270\036\205\013@\341z\024\256Ga#@fffff\2469@\232\231\231\231\231\0312@\303\365(\\\217\302\017@\205\353Q\270\036\205\024@\232\231\231\231\231\0312@\244p=\n\327\243\033@\037\205\353Q\270\036!@\232\231\231\231\231\0312@\244p=\n\327\3435@\\\217\302\365(\334\'@q=\n\327\243p\027@\205\353Q\270\036\205\024@\232\231\231\231\231\0312@\232\231\231\231\231\0312@\205\353Q\270\036\205\035@\232\231\231\231\231\0312@\000\000\000\000\000\000\364?\037\205\353Q\270\036\007@\\\217\302\365(\334\'@\256G\341z\024.%@\024\256G\341z\2243@\232\231\231\231\231\0312@\270\036\205\353Q\270\023@\232\231\231\231\231\0312@\256G\341z\024.%@q=\n\327\243p\027@H\341z\024\256G\013@H\341z\024\256G @\327\243p=\n\327\033@\232\231\231\231\231\231\020@\232\231\231\231\231\0312@\303\365(\\\217\302\024@\270\036\205\353Q\270\023@q=\n\327\243p\023@=\n\327\243p\275;@\327\243p=\n\327+@333333\020@\232\231\231\231\231\0312@\217\302\365(\\\217\376?{\024\256G\341z\037@\244p=\n\327\3435@\232\231\231\231\231\0312@\244p=\n\327\243\033@\024\256G\341z\2243@\205\353Q\270\036\205\024@\232\231\231\231\231\0312@\327\243p=\n\327\033@\315\314\314\314\314\314\030@\205\353Q\270\036\205\013@)\\\217\302\365\250)@\232\231\231\231\231\0312@\205\353Q\270\036\005$@\315\314\314\314\314\314#@\315\314\314\314\314\314#@H\341z\024\256\307+@H\341z\024\256G @\303\365(\\\217\302\017@333333\020@q=\n\327\243p\001@\327\243p=\n\327\033@H\341z\024\256G @\303\365(\\\217\302\007@\232\231\231\231\231\0312@\217\302\365(\\\217\026@\327\243p=\n\327\027@q=\n\327\243p\023@\024\256G\341z\2243@\270\036\205\353Q\270\023@\303\365(\\\217\302\017@H\341z\024\256G @\232\231\231\231\231\0312@\232\231\231\231\231\0312@\205\353Q\270\036\205\035@\205\353Q\270\036\005$@\341z\024\256Ga#@\256G\341z\024\256\003@\232\231\231\231\231\0312@\n\327\243p=\n\373?\024\256G\341z\2243@\232\231\231\231\231\0312@\244p=\n\327\243\031@\327\243p=\n\327\027@\037\205\353Q\270\036!@\024\256G\341z\2243@\315\314\314\314\314\314#@\232\231\231\231\231\0312@\232\231\231\231\231\0312@\037\205\353Q\270\236%@H\341z\024\256G @\232\231\231\231\231\0312@q=\n\327\243p\001@\315\314\314\314\314\314\023@\232\231\231\231\231\0312@\024\256G\341z\2243@\232\231\231\231\231\0312@\\\217\302\365(\\\030@\244p=\n\327\3435@H\341z\024\256\307+@\315\314\314\314\314\314\030@\024\256G\341z\024.@\315\314\314\314\314\314#@\024\256G\341z\2243@\232\231\231\231\231\0312@\232\231\231\231\231\0312@\232\231\231\231\231\0312@\024\256G\341z\2243@\232\231\231\231\231\0312@\315\314\314\314\314\314\030@\205\353Q\270\036\005$@\315\314\314\314\314\314\030@\303\365(\\\217\302\024@\244p=\n\327\243\031@\232\231\231\231\231\0312@\232\231\231\231\231\0312@\232\231\231\231\231\0312@H\341z\024\256G @\024\256G\341z\2243@\232\231\231\231\231\0312@\232\231\231\231\231\0312@\232\231\231\231\231\0312@\024\256G\341z\2243@\270\036\205\353Q\270\023@333333\020@\232\231\231\231\231\0312@\315\314\314\314\314\314\023@\244p=\n\327\243\n@\024\256G\341z\2243@333333\020@\354Q\270\036\205\353\001@H\341z\024\256G\013@\244p=\n\327\3435@\024\256G\341z\2243@R\270\036\205\353Q\370?)\\\217\302\365(\374?\024\256G\341z\024.@\024\256G\341z\2243@q=\n\327\243p\023@q=\n\327\243p\001@\232\231\231\231\231\0312@)\\\217\302\365\250)@\205\353Q\270\036\205\035@\303\365(\\\217\302\017@q=\n\327\243p\027@H\341z\024\256G\030@\256G\341z\024\256\003@H\341z\024\256G @\256G\341z\024.%@\232\231\231\231\231\0312@=\n\327\243p=\016@\232\231\231\231\231\0312@\232\231\231\231\231\0312@\232\231\231\231\231\0312@\232\231\231\231\231\0312@\232\231\231\231\231\0312@\315\314\314\314\314\314#@\232\231\231\231\231\0312@\232\231\231\231\231\0312@\037\205\353Q\270\036!@\\\217\302\365(\334\'@fffff\2469@\024\256G\341z\024.@\303\365(\\\217\302\017@\232\231\231\231\231\0312@\354Q\270\036\205\353\001@\232\231\231\231\231\0312@\232\231\231\231\231\0312@fffff\2469@\000\000\000\000\000\000\020@\256G\341z\024\256\003@\232\231\231\231\231\0312@H\341z\024\256G @R\270\036\205\353Q\370?\232\231\231\231\231\0312@\217\302\365(\\\217\026@\037\205\353Q\270\036\365?q=\n\327\243p\027@\366(\\\217\302\365\n@\037\205\353Q\270\236%@\232\231\231\231\231\0312@\315\314\314\314\314\314\030@\341z\024\256Ga#@\205\353Q\270\036\005$@\315\314\314\314\314\314\030@q=\n\327\243p\335?\232\231\231\231\231\0312@\037\205\353Q\270\036!@\232\231\231\231\231\0312@\217\302\365(\\\217\021@\232\231\231\231\231\0312@\037\205\353Q\270\036!@\024\256G\341z\2243@H\341z\024\256G @\217\302\365(\\\217\026@\232\231\231\231\231\0312@=\n\327\243p=\376?\366(\\\217\302\365\021@\232\231\231\231\231\0312@\315\314\314\314\314\314\030@\205\353Q\270\036\205\024@\232\231\231\231\231\0312@\244p=\n\327\3435@\303\365(\\\217\302\017@q=\n\327\243p\001@\232\231\231\231\231\0312@\341z\024\256Ga#@\205\353Q\270\036\205\024@\232\231\231\231\231\0312@\315\314\314\314\314\314\030@\315\314\314\314\314\314\030@\024\256G\341z\2243@\024\256G\341z\2243@\\\217\302\365(\\\030@\232\231\231\231\231\0312@\315\314\314\314\314\314\030@\\\217\302\365(\\\363?\024\256G\341z\2243@)\\\217\302\365\250)@\366(\\\217\302\365\n@\315\314\314\314\314\314\023@\232\231\231\231\231\0312@\354Q\270\036\205\353\t@\327\243p=\n\327+@\354Q\270\036\205\353\t@\232\231\231\231\231\0312@\037\205\353Q\270\036!@\244p=\n\327\3435@\037\205\353Q\270\036\007@\315\314\314\314\314\314#@\037\205\353Q\270\036\007@\232\231\231\231\231\0312@\256G\341z\024.%@R\270\036\205\353Q\370?\\\217\302\365(\334\'@=\n\327\243p=\030@\232\231\231\231\231\0312@{\024\256G\341z\037@\315\314\314\314\314\314#@\315\314\314\314\314\314\030@\256G\341z\024.%@H\341z\024\256\307+@\256G\341z\024\256\003@H\341z\024\256G\013@\232\231\231\231\231\0312@\217\302\365(\\\217\026@\205\353Q\270\036\205\013@\315\314\314\314\314\314#@\244p=\n\327\3435@\244p=\n\327\3435@R\270\036\205\353Q\370?\217\302\365(\\\217\021@\327\243p=\n\327\027@\232\231\231\231\231\0312@\037\205\353Q\270\036!@H\341z\024\256G\013@\244p=\n\327\3435@\232\231\231\231\231\0312@\256G\341z\024.%@\205\353Q\270\036\205\035@\232\231\231\231\231\0312@\232\231\231\231\231\0312@\232\231\231\231\231\0312@\232\231\231\231\231\0312@\256G\341z\024.%@\232\231\231\231\231\0312@\244p=\n\327\243\033@\327\243p=\n\327\033@=\n\327\243p=\030@\024\256G\341z\2243@q=\n\327\243p\007@"
      }
    }
  }
}
node {
  name: "normalize_element/component_6"
  op: "Const"
  device: "/device:CPU:0"
  attr {
    key: "_output_shapes"
    value {
      list {
        shape {
          dim {
            size: 404
          }
        }
      }
    }
  }
  attr {
    key: "dtype"
    value {
      type: DT_DOUBLE
    }
  }
  attr {
    key: "value"
    value {
      tensor {
        dtype: DT_DOUBLE
        tensor_shape {
          dim {
            size: 404
          }
        }
        tensor_content: "\270\036\205\353Q\2702@\341z\024\256G\341\010@\024\256G\341z\024\n@\205\353Q\270\036\005 @\315\314\314\314\314L-@{\024\256G\341z\'@\232\231\231\231\231\2317@\354Q\270\036\205k:@fffff\2460@\024\256G\341z4A@\217\302\365(\\O4@\217\302\365(\\/A@\341z\024\256Ga-@\341z\024\256Ga,@\303\365(\\\217B;@\037\205\353Q\270\2364@\256G\341z\024\256\007@\341z\024\256G\341\023@\270\036\205\353Q\270\035@\327\243p=\n\327\"@\n\327\243p=\n-@H\341z\024\256G\021@\315\314\314\314\314\314\021@\354Q\270\036\205\353\023@\037\205\353Q\270\036%@=\n\327\243p=5@\\\217\302\365(\334(@\037\205\353Q\270\036\020@\037\205\353Q\270\236-@333333.@ffffff\036@\205\353Q\270\036E1@{\024\256G\341:0@R\270\036\205\353Q\032@\256G\341z\024\256\377?{\024\256G\341z\030@\303\365(\\\217\2020@\232\231\231\231\231Y2@\315\314\314\314\314\314\036@q=\n\327\243\360\'@\217\302\365(\\\0172@\303\365(\\\217\302\035@\270\036\205\353Q\270\026@\n\327\243p=\n.@\232\231\231\231\231Y0@\315\314\314\314\314L0@\217\302\365(\\\017.@\366(\\\217\302\365\'@\232\231\231\231\231\231\033@\\\217\302\365(\0341@\024\256G\341z\224\"@\315\314\314\314\314\0142@\354Q\270\036\205\353\022@\205\353Q\270\036\005#@\217\302\365(\\\017(@=\n\327\243p\275,@\244p=\n\327\2431@\205\353Q\270\036\2055@\327\243p=\n\327\007@R\270\036\205\353Q\025@\n\327\243p=\212,@\354Q\270\036\205\353\036@H\341z\024\256\0072@)\\\217\302\365\2502@\341z\024\256G!2@\270\036\205\353Q80@\217\302\365(\\O1@\\\217\302\365(\0346@\270\036\205\353Q\370=@{\024\256G\341\3727@\354Q\270\036\205k$@\205\353Q\270\036E7@\366(\\\217\302\365\006@\024\256G\341zT2@\327\243p=\nW4@\256G\341z\024\356=@\244p=\n\327c8@\327\243p=\nW2@\341z\024\256G\341,@R\270\036\205\353\321:@\024\256G\341z\024\031@H\341z\024\256G\t@\341z\024\256Ga\'@\366(\\\217\302u @=\n\327\243p=&@\000\000\000\000\000\000\033@\037\205\353Q\270^3@{\024\256G\341z\016@H\341z\024\256\207=@\n\327\243p=J7@\366(\\\217\302\365\036@\n\327\243p=\n\007@\315\314\314\314\314\314$@=\n\327\243p=\036@\327\243p=\n\327\020@q=\n\327\243p&@=\n\327\243p=\022@\270\036\205\353Q\270)@\037\205\353Q\270\036\024@\327\243p=\n\327\024@\024\256G\341z\024\010@\303\365(\\\217\302\003@\366(\\\217\302u)@\\\217\302\365(\\\023@\270\036\205\353Q8$@\232\231\231\231\231\231\027@\232\231\231\231\231\0318@\232\231\231\231\231\031#@)\\\217\302\365(1@\205\353Q\270\036E1@\232\231\231\231\231\031/@\232\231\231\231\231\231\r@R\270\036\205\353Q$@\244p=\n\327#5@\024\256G\341z\024\027@R\270\036\205\353Q\025@ffffff/@\232\231\231\231\231\0311@\205\353Q\270\036\205/@H\341z\024\256G\026@)\\\217\302\365(\031@\217\302\365(\\\217&@33333s:@\341z\024\256G\341\010@\366(\\\217\30251@\366(\\\217\302\265;@\256G\341z\024\256(@ffffff\024@\024\256G\341z\224-@\354Q\270\036\205\353\027@\315\314\314\314\314L,@\270\036\205\353Q8+@\000\000\000\000\000\000\025@\270\036\205\353Q\270\032@\232\231\231\231\231\2311@\024\256G\341z\2241@\024\256G\341z\0245@{\024\256G\341z\024@q=\n\327\243p\"@{\024\256G\341\3726@\217\302\365(\\\317>@\n\327\243p=\212(@\327\243p=\nW.@\205\353Q\270\036\205(@\217\302\365(\\\217\026@\n\327\243p=\n#@\000\000\000\000\000\000#@\n\327\243p=J0@\270\036\205\353Q85@R\270\036\205\353Q\024@q=\n\327\243\3600@\217\302\365(\\\217\027@\256G\341z\024\256&@\205\353Q\270\036\205\037@=\n\327\243p\275%@\217\302\365(\\\217*@\341z\024\256Ga;@q=\n\327\243p\031@)\\\217\302\365\250*@H\341z\024\256\0070@\315\314\314\314\314L$@\000\000\000\000\000\000\026@\232\231\231\231\231\231)@R\270\036\205\353Q\032@q=\n\327\243p\031@\303\365(\\\217B(@\205\353Q\270\036\005!@\303\365(\\\217\302\024@)\\\217\302\365(\025@R\270\036\205\353\0212@\217\302\365(\\\217\035@\024\256G\341z\024\"@fffff\346&@\232\231\231\231\231\031 @\354Q\270\036\205k/@\256G\341z\024.-@=\n\327\243p\2756@=\n\327\243p=\027@\315\314\314\314\314\314;@\354Q\270\036\205\353\032@\327\243p=\n\2270@\315\314\314\314\314L+@q=\n\327\243p\031@\303\365(\\\217\302\022@333333\"@\341z\024\256G\241>@\232\231\231\231\231\231$@q=\n\327\243p\'@\270\036\205\353Q\270$@\000\000\000\000\000\000%@H\341z\024\256G1@\244p=\n\327\243\027@H\341z\024\256G#@\341z\024\256G\341\031@\000\000\000\000\000\000*@\205\353Q\270\036\0055@ffffff\037@q=\n\327\243\2607@\\\217\302\365(\334 @\\\217\302\365(\\#@\341z\024\256G\341\034@\n\327\243p=J=@{\024\256G\341z\035@fffff\346$@)\\\217\302\365\250+@\256G\341z\024\2562@q=\n\327\243p1@\024\256G\341z\224)@=\n\327\243p\275.@\205\353Q\270\036\005(@\366(\\\217\302\365+@\366(\\\217\302\2652@\366(\\\217\302\365\025@333333&@\217\302\365(\\\2178@\303\365(\\\217\302\034@\n\327\243p=\212!@\270\036\205\353Qx0@\217\302\365(\\\217\035@\217\302\365(\\\217\"@=\n\327\243p\2750@\232\231\231\231\231\3314@\303\365(\\\217\302#@q=\n\327\243\360 @)\\\217\302\365(\037@\205\353Q\270\036\205\007@\244p=\n\327\243\n@q=\n\327\243p*@\270\036\205\353Q\270\031@{\024\256G\341z\034@q=\n\327\243p\023@q=\n\327\24301@\205\353Q\270\036\005+@\232\231\231\231\231\231\017@R\270\036\205\353Q @)\\\217\302\365(\022@\244p=\n\327#0@\303\365(\\\217\0023@\327\243p=\nW)@\341z\024\256G\341*@=\n\327\243p=(@H\341z\024\256G<@\303\365(\\\217\302%@fffff\346$@\366(\\\217\302u5@\232\231\231\231\231\231#@333333\030@\303\365(\\\217\3022@\327\243p=\n\227>@\341z\024\256G!2@\232\231\231\231\231\2316@\244p=\n\327\243&@H\341z\024\256\3075@=\n\327\243p=7@\024\256G\341z\0244@=\n\327\243p=.@\315\314\314\314\314\314(@\256G\341z\024\256\033@ffffff:@{\024\256G\341z\014@\024\256G\341z\024\016@R\270\036\205\353Q<@\270\036\205\353Q8$@\366(\\\217\302\365\022@ffffff @H\341z\024\256\307.@\\\217\302\365(\334,@{\024\256G\341z\032@\\\217\302\365(\334)@\327\243p=\n\327\030@\n\327\243p=\n.@\341z\024\256G\341\032@\037\205\353Q\270\036\036@)\\\217\302\365(%@\341z\024\256G\341!@\315\314\314\314\314\314\034@\000\000\000\000\000\200&@=\n\327\243p=\032@\256G\341z\024.*@H\341z\024\256G\023@\327\243p=\nW-@\327\243p=\n\0277@\205\353Q\270\036\3053@\270\036\205\353Q\270\034@\303\365(\\\217\002A@\303\365(\\\217bA@\217\302\365(\\\317>@\327\243p=\nW.@\205\353Q\270\036\2053@\232\231\231\231\231\231\037@\217\302\365(\\\017#@\217\302\365(\\\017(@\256G\341z\024.,@)\\\217\302\365(\"@\037\205\353Q\270\236-@\256G\341z\024.%@333333 @\354Q\270\036\205\3533@H\341z\024\256G\030@\n\327\243p=\3127@\000\000\000\000\000\000,@)\\\217\302\365h9@\232\231\231\231\231\231-@fffff\346\"@\n\327\243p=\3121@\205\353Q\270\036\205$@R\270\036\205\353Q\020@\327\243p=\n\327$@fffff\346*@\232\231\231\231\231\231\017@\270\036\205\353Q\270\014@{\024\256G\341z$@\024\256G\341z\024\026@\n\327\243p=\3129@\217\302\365(\\\217\020@)\\\217\302\365\250,@\327\243p=\n\0271@\205\353Q\270\036\205\022@\303\365(\\\217\302\007@{\024\256G\341\372+@)\\\217\302\365\250(@\303\365(\\\217\302!@\327\243p=\nW)@\341z\024\256Ga$@\341z\024\256G\341*@\\\217\302\365(\\\022@\205\353Q\270\036\205 @\\\217\302\365(\334\"@\244p=\n\327#2@\315\314\314\314\314L!@=\n\327\243p=#@\256G\341z\024\256*@\024\256G\341z\024\016@q=\n\327\243p\033@H\341z\024\256G-@)\\\217\302\365(8@\256G\341z\024.#@\270\036\205\353Q\270\033@\341z\024\256G\3416@333333,@\315\314\314\314\314L*@R\270\036\205\353Q5@\232\231\231\231\231\031 @ffffff\036@\217\302\365(\\\217\n@\256G\341z\024\256\373?\000\000\000\000\000\000#@\327\243p=\nW7@\n\327\243p=\n\t@H\341z\024\256G\t@H\341z\024\256G\'@\n\327\243p=\212$@\256G\341z\024\256\022@\315\314\314\314\314\314\022@\327\243p=\n\327\r@q=\n\327\243\360#@)\\\217\302\365(!@\\\217\302\365(\\\035@{\024\256G\341\2721@\000\000\000\000\000\000*@333333)@\217\302\365(\\\217\014@q=\n\327\243\360#@\303\365(\\\217\302\030@\303\365(\\\217B,@\217\302\365(\\\0172@\366(\\\217\302\365\025@\354Q\270\036\205\353\031@\\\217\302\365(\334(@fffff&1@33333s4@H\341z\024\256G)@\024\256G\341z\024#@\315\314\314\314\314\214=@\341z\024\256Ga#@)\\\217\302\365(\024@\037\205\353Q\270\236!@\354Q\270\036\205k0@\037\205\353Q\270\036\025@=\n\327\243p=\022@\354Q\270\036\205\353\027@fffff\3460@\366(\\\217\302\3650@\270\036\205\353Q8!@\217\302\365(\\\017%@\303\365(\\\217B$@q=\n\327\243p0@\256G\341z\024\256\036@\315\314\314\314\314\314\026@R\270\036\205\353Q5@\244p=\n\327\243:@R\270\036\205\353Q-@\232\231\231\231\231\231\030@ffffff-@\232\231\231\231\231\2311@=\n\327\243p}B@{\024\256G\341\3727@q=\n\327\243\360%@\\\217\302\365(\374B@3333330@\\\217\302\365(\\\032@R\270\036\205\353Q\037@\024\256G\341z\224/@\205\353Q\270\036\205\021@"
      }
    }
  }
}
node {
  name: "normalize_element/component_7"
  op: "Const"
  device: "/device:CPU:0"
  attr {
    key: "_output_shapes"
    value {
      list {
        shape {
          dim {
            size: 404
          }
        }
      }
    }
  }
  attr {
    key: "dtype"
    value {
      type: DT_DOUBLE
    }
  }
  attr {
    key: "value"
    value {
      tensor {
        dtype: DT_DOUBLE
        tensor_shape {
          dim {
            size: 404
          }
        }
        tensor_content: "\236\357\247\306K7\341?\217\302\365(\\\217\332?\376\324x\351&1\344?{\024\256G\341z\340?7\211A`\345\320\346?Zd;\337O\215\337?ffffff\346?\254\034Zd;\337\353?\254\034Zd;\337\353?+\207\026\331\316\367\343?\223\030\004V\016-\346?\264\310v\276\237\032\343?R\270\036\205\353Q\340?\244p=\n\327\243\350?d;\337O\215\227\342?\356|?5^\272\345?\376\324x\351&1\344?\232\231\231\231\231\231\331?\217\302\365(\\\217\332?\244p=\n\327\243\340?\356|?5^\272\345?1\010\254\034Zd\333?\230n\022\203\300\312\331?\236\357\247\306K7\341?{\024\256G\341z\340?F\266\363\375\324x\345?\370S\343\245\233\304\340?j\274t\223\030\004\336?\236\357\247\306K7\341?\270\036\205\353Q\270\342?\354Q\270\036\205\353\331?7\211A`\345\320\346?7\211A`\345\320\346?\236\357\247\306K7\341?1\010\254\034Zd\333?Zd;\337O\215\337?\236\357\247\306K7\341?\236\357\247\306K7\341?Zd;\337O\215\337?+\207\026\331\316\367\333?\260rh\221\355|\343?y\351&1\010\254\334?{\024\256G\341z\340?`\345\320\"\333\371\346?\223\030\004V\016-\346?\236\357\247\306K7\341?+\207\026\331\316\367\343?\236\357\247\306K7\341?Nb\020X9\264\344?ffffff\346?{\024\256G\341z\340?\256G\341z\024\256\347?\323Mb\020X9\340?\354Q\270\036\205\353\331?\\\217\302\365(\\\343?d;\337O\215\227\342?\343\245\233\304 \260\342?\356|?5^\272\345?\317\367S\343\245\233\334?R\270\036\205\353Q\340?d;\337O\215\227\342?\031\004V\016-\262\335?\331\316\367S\343\245\343?\244p=\n\327\243\340?7\211A`\345\320\346?7\211A`\345\320\346?+\207\026\331\316\367\343?\256G\341z\024\256\347?\223\030\004V\016-\346?\262\235\357\247\306K\337?y\351&1\010\254\334?\256G\341z\024\256\347?+\207\026\331\316\367\333?\234\304 \260rh\341?\236\357\247\306K7\341?\370S\343\245\233\304\340?\356|?5^\272\345?+\207\026\331\316\367\343?\313\241E\266\363\375\334?\254\034Zd;\337\353?+\207\026\331\316\367\333?ffffff\342?\236\357\247\306K7\341?L7\211A`\345\330?+\207\026\331\316\367\343?{\024\256G\341z\340?\223\030\004V\016-\346?\376e\367\344a\241\332?\254\034Zd;\337\353?\331\316\367S\343\245\343?\240\032/\335$\006\341?\376e\367\344a\241\332?+\207\026\331\316\367\333?\010\254\034Zd;\337?{\024\256G\341z\334?1\010\254\034Zd\333?\230n\022\203\300\312\331?#\333\371~j\274\334?D\213l\347\373\251\331?\035Zd;\337O\335?c\177\331=yX\334?\323Mb\020X9\340?\234\304 \260rh\341?y\351&1\010\254\334?\264\310v\276\237\032\343?/\335$\006\201\225\333?\343\245\233\304 \260\342?y\351&1\010\254\334?\343\245\233\304 \260\342?\262\235\357\247\306K\337?\244p=\n\327\243\340?\\\217\302\365(\\\343?\033/\335$\006\201\341?\270\036\205\353Q\270\342?=\n\327\243p=\332?\035Zd;\337O\335?`\345\320\"\333\371\346?\370S\343\245\233\304\340?\033/\335$\006\201\341?;\337O\215\227n\332?R\270\036\205\353Q\340?\236\357\247\306K7\341?\256G\341z\024\256\347?\236\357\247\306K7\331?F\266\363\375\324x\345?\236\357\247\306K7\341?+\207\026\331\316\367\333?+\207\026\331\316\367\333?Nb\020X9\264\344?\333\371~j\274t\333?y\351&1\010\254\334?\033/\335$\006\201\341?T\343\245\233\304 \340?+\207\026\331\316\367\333?\270\036\205\353Q\270\342?d;\337O\215\227\342?F\266\363\375\324x\345?Nb\020X9\264\344?\313\241E\266\363\375\334?\223\030\004V\016-\346?y\351&1\010\254\334?\244p=\n\327\243\340?\223\030\004V\016-\346?+\207\026\331\316\367\343?\274t\223\030\004V\342?/\335$\006\201\225\333?\313\241E\266\363\375\334?\217\302\365(\\\217\342?\264\310v\276\237\032\343?Zd;\337O\215\337?7\211A`\345\320\346?\333\371~j\274t\333?{\024\256G\341z\334?\274t\223\030\004V\342?\262\235\357\247\306K\337?\254\034Zd;\337\353?\223\030\004V\016-\346?1\010\254\034Zd\333?\376\324x\351&1\344?\262\235\357\247\306K\337?/\335$\006\201\225\333?\262\235\357\247\306K\337?\236\357\247\306K7\341?\031\004V\016-\262\335?\333\371~j\274t\333?J\014\002+\207\026\345?{\024\256G\341z\340?1\010\254\034Zd\333?\335$\006\201\225C\333?\260rh\221\355|\343?+\207\026\331\316\367\333?R\270\036\205\353Q\340?\016-\262\235\357\247\342?;\337O\215\227n\332?\370S\343\245\233\304\340?+\207\026\331\316\367\343?`\345\320\"\333\371\346?y\351&1\010\254\334?\254\034Zd;\337\353?\313\241E\266\363\375\334?\256G\341z\024\256\347?\031\004V\016-\262\335?T\343\245\233\304 \340?+\207\026\331\316\367\333?+\207\026\331\316\367\333?ffffff\346?\033/\335$\006\201\341?\234\304 \260rh\341?\234\304 \260rh\341?\232\231\231\231\231\231\341?\236\357\247\306K7\341?Nb\020X9\264\344?R\270\036\205\353Q\340?h\221\355|?5\336?\031\004V\016-\262\335?\236\357\247\306K7\341?\232\231\231\231\231\231\331?F\266\363\375\324x\345?\177j\274t\223\030\334?V\016-\262\235\357\337?\335$\006\201\225C\333?\254\034Zd;\337\353?1\010\254\034Zd\333?Nb\020X9\264\344?\236\357\247\306K7\341?\331\316\367S\343\245\343?7\211A`\345\320\346?Zd;\337O\215\337?\033/\335$\006\201\341?\270\036\205\353Q\270\342?\010\254\034Zd;\337?7\211A`\345\320\346?\347\373\251\361\322M\332?\\\217\302\365(\\\343?ffffff\346?\317\367S\343\245\233\334?V\016-\262\235\357\337?\244p=\n\327\243\340?\254\034Zd;\337\353?\234\304 \260rh\341?7\211A`\345\320\346?ffffff\346?;\337O\215\227n\332?\236\357\247\306K7\341?\244p=\n\327\243\350?\035Zd;\337O\335?\347\373\251\361\322M\332?\366(\\\217\302\365\344?\\\217\302\365(\\\343?`\345\320\"\333\371\346?\203\300\312\241E\266\333?+\207\026\331\316\367\343?\232\231\231\231\231\231\341?\323Mb\020X9\340?\031\004V\016-\262\335?\234\304 \260rh\341?\254\034Zd;\337\353?7\211A`\345\320\346?\244p=\n\327\243\350?F\266\363\375\324x\345?\254\034Zd;\337\353?ffffff\346?\323Mb\020X9\340?\033/\335$\006\201\341?\323Mb\020X9\340?{\024\256G\341z\340?\317\367S\343\245\233\334?ffffff\346?\223\030\004V\016-\346?\217\302\365(\\\217\342?\236\357\247\306K7\341?\\\217\302\365(\\\343?F\266\363\375\324x\345?F\266\363\375\324x\345?\264\310v\276\237\032\343?\254\034Zd;\337\353?1\010\254\034Zd\333?R\270\036\205\353Q\340?\264\310v\276\237\032\343?\347\373\251\361\322M\332?c\177\331=yX\334?\254\034Zd;\337\353?R\270\036\205\353Q\340?\232\231\231\231\231\231\331?\262\235\357\247\306K\337?+\207\026\331\316\367\343?\\\217\302\365(\\\343?B`\345\320\"\333\331?\244p=\n\327\243\330?\031\004V\016-\262\335?\254\034Zd;\337\353?\335$\006\201\225C\333?h\221\355|?5\336?\016-\262\235\357\247\342?+\207\026\331\316\367\333?Zd;\337O\215\337?Nb\020X9\264\344?/\335$\006\201\225\333?\223\030\004V\016-\332?\010\254\034Zd;\337?\236\357\247\306K7\341?\262\235\357\247\306K\337?\223\030\004V\016-\346?`\345\320\"\333\371\336?\256G\341z\024\256\347?\307K7\211A`\345?ffffff\346?7\211A`\345\320\346?\256G\341z\024\256\347?\234\304 \260rh\341?\376\324x\351&1\344?\343\245\233\304 \260\342?\244p=\n\327\243\340?\274t\223\030\004V\342?d;\337O\215\227\342?\031\004V\016-\262\335?Nb\020X9\264\344?\223\030\004V\016-\346?\232\231\231\231\231\231\331?\256G\341z\024\256\347?`\345\320\"\333\371\346?d;\337O\215\227\342?=\n\327\243p=\332?\010\254\034Zd;\337?\256G\341z\024\256\347?\236\357\247\306K7\341?B`\345\320\"\333\331?\240\032/\335$\006\341?\177j\274t\223\030\334?\347\373\251\361\322M\332?/\335$\006\201\225\333?F\266\363\375\324x\331?;\337O\215\227n\332?\356|?5^\272\345?T\343\245\233\304 \340?\270\036\205\353Q\270\342?\033/\335$\006\201\341?T\343\245\233\304 \340?5^\272I\014\002\333?7\211A`\345\320\346?\244p=\n\327\243\340?\307K7\211A`\345?}?5^\272I\334?\244p=\n\327\243\350?\244p=\n\327\243\340?\\\217\302\365(\\\343?\236\357\247\306K7\341?\177j\274t\223\030\334?\343\245\233\304 \260\342?\372~j\274t\223\340?#\333\371~j\274\334?\016-\262\235\357\247\342?T\343\245\233\304 \340?\313\241E\266\363\375\334?\244p=\n\327\243\350?+\207\026\331\316\367\343?Nb\020X9\264\344?h\221\355|?5\336?\256G\341z\024\256\347?\270\036\205\353Q\270\342?\313\241E\266\363\375\334?\343\245\233\304 \260\342?\323Mb\020X9\340?\323Mb\020X9\340?\\\217\302\365(\\\343?\\\217\302\365(\\\343?\203\300\312\241E\266\333?J\014\002+\207\026\345?T\343\245\233\304 \340?D\213l\347\373\251\331?\\\217\302\365(\\\343?+\207\026\331\316\367\333?F\266\363\375\324x\331?\347\373\251\361\322M\332?\376\324x\351&1\344?q=\n\327\243p\335?+\207\026\331\316\367\333?q=\n\327\243p\335?7\211A`\345\320\346?\244p=\n\327\243\340?+\207\026\331\316\367\343?{\024\256G\341z\334?\234\304 \260rh\341?{\024\256G\341z\334?\366(\\\217\302\365\344?\262\235\357\247\306K\337?}?5^\272I\334?\274t\223\030\004V\342?\021\307\272\270\215\006\334?\366(\\\217\302\365\344?\370S\343\245\233\304\340?\234\304 \260rh\341?\323Mb\020X9\340?\262\235\357\247\306K\337?\232\231\231\231\231\231\341?\010\254\034Zd;\337?\262\235\357\247\306K\337?7\211A`\345\320\346?\177j\274t\223\030\334?+\207\026\331\316\367\333?\234\304 \260rh\341?+\207\026\331\316\367\343?+\207\026\331\316\367\343?B`\345\320\"\333\331?}?5^\272I\334?V\016-\262\235\357\337?\256G\341z\024\256\347?\244p=\n\327\243\340?\262\235\357\247\306K\337?+\207\026\331\316\367\343?\356|?5^\272\345?\262\235\357\247\306K\337?Zd;\337O\215\337?7\211A`\345\320\346?\244p=\n\327\243\350?\223\030\004V\016-\346?\256G\341z\024\256\347?\262\235\357\247\306K\337?\307K7\211A`\345?y\351&1\010\254\334?\031\004V\016-\262\335?\021\307\272\270\215\006\334?\254\034Zd;\337\353?D\213l\347\373\251\331?"
      }
    }
  }
}
node {
  name: "normalize_element/component_8"
  op: "Const"
  device: "/device:CPU:0"
  attr {
    key: "_output_shapes"
    value {
      list {
        shape {
          dim {
            size: 404
          }
        }
      }
    }
  }
  attr {
    key: "dtype"
    value {
      type: DT_DOUBLE
    }
  }
  attr {
    key: "value"
    value {
      tensor {
        dtype: DT_DOUBLE
        tensor_shape {
          dim {
            size: 404
          }
        }
        tensor_content: "\000\000\000\000\000\0005@ffffff-@3333334@3333334@3333334@\232\231\231\231\231\2313@3333334@ffffff-@ffffff-@3333335@3333334@3333334@\232\231\231\231\231\2310@3333334@\232\231\231\231\231\0313@3333334@3333334@\232\231\231\231\231\231-@ffffff-@fffff\3464@3333334@\315\314\314\314\314L2@\000\000\000\000\000\0001@\232\231\231\231\231\231.@3333334@3333334@ffffff.@\315\314\314\314\314\3141@\000\000\000\000\000\0005@3333333@\232\231\231\231\231\2310@3333334@3333334@\000\000\000\000\000\0005@\315\314\314\314\314L2@\232\231\231\231\231\2313@\000\000\000\000\000\0005@\000\000\000\000\000\0005@\232\231\231\231\231\2313@33333\2632@\232\231\231\231\231\0314@fffff\3461@3333334@3333334@3333334@\000\000\000\000\000\0005@3333335@\000\000\000\000\000\0005@\000\000\000\000\000\000*@3333334@3333334@3333334@ffffff1@\232\231\231\231\231\2310@ffffff-@\232\231\231\231\231\0313@3333334@3333334@\232\231\231\231\231\2311@\232\231\231\231\231\2310@\232\231\231\231\231\0313@\232\231\231\231\231\2312@3333334@fffff\3464@3333334@3333334@3333335@3333334@3333334@\232\231\231\231\231\2312@fffff\3461@3333334@ffffff.@ffffff2@\000\000\000\000\000\0005@ffffff.@3333334@3333335@33333\2633@ffffff-@\000\000\000\000\000\0000@\000\000\000\000\000\000*@\000\000\000\000\000\0005@\232\231\231\231\231\231.@3333335@3333334@3333334@ffffff-@ffffff-@3333334@3333334@ffffff-@\000\000\000\000\000\0000@\315\314\314\314\314\3141@\000\000\000\000\000\0002@\232\231\231\231\231\2310@\000\000\000\000\000\0001@\000\000\000\000\000\2002@333333/@33333\2632@\315\314\314\314\314\314-@ffffff1@ffffff2@fffff\3461@3333334@\232\231\231\231\231\0313@3333334@fffff\3461@3333334@\232\231\231\231\231\2312@fffff\3464@ffffff-@\315\314\314\314\314\3141@3333333@\315\314\314\314\314L1@33333\2632@3333334@ffffff.@\315\314\314\314\314\3141@\000\000\000\000\000\0006@\232\231\231\231\231\2310@\000\000\000\000\000\0005@3333334@\315\314\314\314\314\314/@3333334@\000\000\000\000\000\0005@33333\2632@ffffff.@\000\000\000\000\000\000*@33333\2633@fffff\3461@\315\314\314\314\314\3141@ffffff1@ffffff.@3333333@\232\231\231\231\231\0313@3333334@\000\000\000\000\000\000*@33333\2633@3333334@fffff\3461@fffff\3464@3333334@3333335@\000\000\000\000\000\0005@\232\231\231\231\231\0313@33333\2633@3333334@3333334@\232\231\231\231\231\2313@3333334@33333\2633@\000\000\000\000\000\0002@\000\000\000\000\000\0005@\232\231\231\231\231\2312@ffffff-@3333334@\232\231\231\231\231\2310@3333334@\232\231\231\231\231\2312@\232\231\231\231\231\0313@\315\314\314\314\314\3141@\000\000\000\000\000\0005@\232\231\231\231\231\2312@fffff\3461@3333334@3333334@\232\231\231\231\231\2310@\000\000\000\000\000\0003@\232\231\231\231\231\0314@\000\000\000\000\000\0000@\232\231\231\231\231\2310@3333334@\000\000\000\000\000\0006@ffffff.@3333335@3333334@fffff\3461@ffffff-@33333\2633@3333334@\232\231\231\231\231\2312@ffffff1@ffffff.@33333\2632@3333334@\315\314\314\314\314\3141@ffffff2@ffffff2@ffffff0@\000\000\000\000\000\0005@\000\000\000\000\000\000*@\232\231\231\231\231\2310@ffffff2@\232\231\231\231\231\2312@\000\000\000\000\000\0005@\232\231\231\231\231\231.@3333334@\315\314\314\314\314\3140@3333333@\000\000\000\000\000\0003@ffffff-@\232\231\231\231\231\2310@\000\000\000\000\000\000*@\000\000\000\000\000\0005@3333334@3333334@\232\231\231\231\231\2313@\315\314\314\314\314\3141@3333333@\315\314\314\314\314\3141@3333334@\315\314\314\314\314L2@ffffff-@3333334@\232\231\231\231\231\2311@3333333@fffff\3464@ffffff-@ffffff2@3333334@3333334@3333333@\000\000\000\000\000\0005@3333334@33333\2632@3333333@3333334@ffffff-@3333334@\232\231\231\231\231\0310@3333335@ffffff0@ffffff1@3333332@ffffff2@ffffff-@3333334@3333334@3333334@ffffff-@3333334@ffffff1@\315\314\314\314\314\3141@ffffff1@3333334@\232\231\231\231\231\2311@3333334@3333334@3333334@\000\000\000\000\000\0005@ffffff-@3333334@3333334@3333334@ffffff-@\232\231\231\231\231\2310@\232\231\231\231\231\2310@3333334@3333333@\315\314\314\314\314\314-@ffffff-@\232\231\231\231\231\2310@\232\231\231\231\231\231-@\315\314\314\314\314\3141@3333335@ffffff-@333333)@3333332@3333332@ffffff-@\000\000\000\000\000\0003@ffffff2@3333334@33333\2632@\232\231\231\231\231\2313@\000\000\000\000\000\000*@\232\231\231\231\231\0313@fffff\3462@\315\314\314\314\314\3141@\000\000\000\000\000\0005@\232\231\231\231\231\2312@3333334@\232\231\231\231\231\2311@3333334@3333334@3333334@3333334@3333334@ffffff2@3333334@3333334@fffff\3464@\000\000\000\000\000\0005@\232\231\231\231\231\0313@3333332@\000\000\000\000\000\000*@3333334@\232\231\231\231\231\231-@3333334@3333334@\232\231\231\231\231\0313@\232\231\231\231\231\0315@\315\314\314\314\314\3141@3333334@\000\000\000\000\000\0005@333333)@3333334@\315\314\314\314\314\3140@333333.@\232\231\231\231\231\0313@\232\231\231\231\231\0310@3333333@3333334@ffffff1@3333333@\315\314\314\314\314\3141@ffffff1@\315\314\314\314\314\314,@3333334@fffff\3464@3333334@\315\314\314\314\314\3142@3333334@fffff\3464@ffffff-@\000\000\000\000\000\0005@\315\314\314\314\314\3140@3333334@\315\314\314\314\314\314/@\000\000\000\000\000\2002@3333334@ffffff1@33333\2633@3333334@3333335@\000\000\000\000\000\000*@ffffff2@3333334@3333333@33333\2633@3333334@ffffff1@ffffff1@ffffff-@ffffff-@\232\231\231\231\231\0310@3333334@ffffff1@333333+@ffffff-@33333\2632@\232\231\231\231\231\0310@3333333@3333334@fffff\3460@\000\000\000\000\000\0000@fffff\3460@3333334@fffff\3464@3333335@\000\000\000\000\000\0002@ffffff2@\000\000\000\000\000\0002@3333334@\232\231\231\231\231\2312@\000\000\000\000\000\000/@\000\000\000\000\000\0005@fffff\3460@3333334@ffffff.@ffffff2@ffffff1@\232\231\231\231\231\2312@ffffff0@\315\314\314\314\314\3141@\315\314\314\314\314\3141@3333334@\315\314\314\314\314\3140@ffffff.@ffffff2@3333335@3333335@333333)@\315\314\314\314\314\3142@3333333@3333334@fffff\3464@\315\314\314\314\314\3141@3333335@3333334@\232\231\231\231\231\2312@\232\231\231\231\231\2313@3333334@3333334@3333334@3333334@\232\231\231\231\231\2312@3333334@fffff\3461@\232\231\231\231\231\2312@fffff\3460@ffffff-@333333/@"
      }
    }
  }
}
node {
  name: "normalize_element/component_9"
  op: "Const"
  device: "/device:CPU:0"
  attr {
    key: "_output_shapes"
    value {
      list {
        shape {
          dim {
            size: 404
          }
        }
      }
    }
  }
  attr {
    key: "dtype"
    value {
      type: DT_DOUBLE
    }
  }
  attr {
    key: "value"
    value {
      tensor {
        dtype: DT_DOUBLE
        tensor_shape {
          dim {
            size: 404
          }
        }
        tensor_content: "\000\000\000\000\000\000\020@\000\000\000\000\000\000\000@\000\000\000\000\000\0008@\000\000\000\000\000\000\024@\000\000\000\000\000\0008@\000\000\000\000\000\000\024@\000\000\000\000\000\0008@\000\000\000\000\000\000\024@\000\000\000\000\000\000\024@\000\000\000\000\000\000\020@\000\000\000\000\000\0008@\000\000\000\000\000\0008@\000\000\000\000\000\000\024@\000\000\000\000\000\0008@\000\000\000\000\000\000\000@\000\000\000\000\000\0008@\000\000\000\000\000\0008@\000\000\000\000\000\000\024@\000\000\000\000\000\000\000@\000\000\000\000\000\000\024@\000\000\000\000\000\0008@\000\000\000\000\000\000\010@\000\000\000\000\000\000\010@\000\000\000\000\000\000\360?\000\000\000\000\000\000\024@\000\000\000\000\000\0008@\000\000\000\000\000\000\024@\000\000\000\000\000\000\000@\000\000\000\000\000\000\020@\000\000\000\000\000\000\030@\000\000\000\000\000\000\030@\000\000\000\000\000\0008@\000\000\000\000\000\0008@\000\000\000\000\000\000\020@\000\000\000\000\000\000\010@\000\000\000\000\000\000\024@\000\000\000\000\000\000\020@\000\000\000\000\000\000\020@\000\000\000\000\000\000\024@\000\000\000\000\000\000\024@\000\000\000\000\000\000\020@\000\000\000\000\000\000\010@\000\000\000\000\000\000\024@\000\000\000\000\000\0008@\000\000\000\000\000\0008@\000\000\000\000\000\000\020@\000\000\000\000\000\000\020@\000\000\000\000\000\000\020@\000\000\000\000\000\000\024@\000\000\000\000\000\0008@\000\000\000\000\000\000\024@\000\000\000\000\000\0008@\000\000\000\000\000\000 @\000\000\000\000\000\000\030@\000\000\000\000\000\000\024@\000\000\000\000\000\000\000@\000\000\000\000\000\0008@\000\000\000\000\000\0008@\000\000\000\000\000\000\020@\000\000\000\000\000\000\024@\000\000\000\000\000\000\000@\000\000\000\000\000\000\010@\000\000\000\000\000\0008@\000\000\000\000\000\000\024@\000\000\000\000\000\0008@\000\000\000\000\000\0008@\000\000\000\000\000\000\020@\000\000\000\000\000\0008@\000\000\000\000\000\0008@\000\000\000\000\000\000\020@\000\000\000\000\000\000\010@\000\000\000\000\000\0008@\000\000\000\000\000\000\024@\000\000\000\000\000\000\020@\000\000\000\000\000\000\020@\000\000\000\000\000\000\024@\000\000\000\000\000\0008@\000\000\000\000\000\000\020@\000\000\000\000\000\000 @\000\000\000\000\000\000\024@\000\000\000\000\000\000\020@\000\000\000\000\000\000\024@\000\000\000\000\000\000\020@\000\000\000\000\000\000\360?\000\000\000\000\000\000\020@\000\000\000\000\000\000\024@\000\000\000\000\000\0008@\000\000\000\000\000\000\020@\000\000\000\000\000\000\024@\000\000\000\000\000\0008@\000\000\000\000\000\0008@\000\000\000\000\000\000\020@\000\000\000\000\000\000\020@\000\000\000\000\000\000\010@\000\000\000\000\000\000\000@\000\000\000\000\000\000\030@\000\000\000\000\000\000\010@\000\000\000\000\000\000\010@\000\000\000\000\000\000\360?\000\000\000\000\000\000\010@\000\000\000\000\000\000\024@\000\000\000\000\000\000 @\000\000\000\000\000\000\020@\000\000\000\000\000\000\010@\000\000\000\000\000\0008@\000\000\000\000\000\000\034@\000\000\000\000\000\0008@\000\000\000\000\000\000\010@\000\000\000\000\000\0008@\000\000\000\000\000\000\020@\000\000\000\000\000\000\024@\000\000\000\000\000\000\024@\000\000\000\000\000\000\030@\000\000\000\000\000\000\030@\000\000\000\000\000\000\000@\000\000\000\000\000\000\010@\000\000\000\000\000\0008@\000\000\000\000\000\000\024@\000\000\000\000\000\000\030@\000\000\000\000\000\000\020@\000\000\000\000\000\000\024@\000\000\000\000\000\000\020@\000\000\000\000\000\0008@\000\000\000\000\000\000\010@\000\000\000\000\000\0008@\000\000\000\000\000\000\020@\000\000\000\000\000\000\024@\000\000\000\000\000\000\024@\000\000\000\000\000\000\024@\000\000\000\000\000\000\360?\000\000\000\000\000\000\010@\000\000\000\000\000\000\030@\000\000\000\000\000\000 @\000\000\000\000\000\000\024@\000\000\000\000\000\000\030@\000\000\000\000\000\000\000@\000\000\000\000\000\0008@\000\000\000\000\000\000\024@\000\000\000\000\000\000 @\000\000\000\000\000\0008@\000\000\000\000\000\000\010@\000\000\000\000\000\000\024@\000\000\000\000\000\0008@\000\000\000\000\000\000\020@\000\000\000\000\000\000\360?\000\000\000\000\000\000\034@\000\000\000\000\000\000 @\000\000\000\000\000\0008@\000\000\000\000\000\0008@\000\000\000\000\000\000\024@\000\000\000\000\000\0008@\000\000\000\000\000\000\360?\000\000\000\000\000\000\000@\000\000\000\000\000\000\360?\000\000\000\000\000\000\020@\000\000\000\000\000\000\024@\000\000\000\000\000\0008@\000\000\000\000\000\000\030@\000\000\000\000\000\0008@\000\000\000\000\000\000\020@\000\000\000\000\000\000\034@\000\000\000\000\000\000\000@\000\000\000\000\000\000\020@\000\000\000\000\000\000\010@\000\000\000\000\000\000\020@\000\000\000\000\000\0008@\000\000\000\000\000\000\024@\000\000\000\000\000\000\030@\000\000\000\000\000\000\020@\000\000\000\000\000\000\020@\000\000\000\000\000\000\020@\000\000\000\000\000\000\024@\000\000\000\000\000\0008@\000\000\000\000\000\000\020@\000\000\000\000\000\000\024@\000\000\000\000\000\000\020@\000\000\000\000\000\0008@\000\000\000\000\000\000\010@\000\000\000\000\000\000\024@\000\000\000\000\000\000 @\000\000\000\000\000\0008@\000\000\000\000\000\000\010@\000\000\000\000\000\000 @\000\000\000\000\000\000\024@\000\000\000\000\000\000\024@\000\000\000\000\000\0008@\000\000\000\000\000\000\030@\000\000\000\000\000\000\020@\000\000\000\000\000\000\020@\000\000\000\000\000\000\024@\000\000\000\000\000\000\020@\000\000\000\000\000\000\024@\000\000\000\000\000\000\024@\000\000\000\000\000\000\034@\000\000\000\000\000\000\010@\000\000\000\000\000\000\020@\000\000\000\000\000\000\360?\000\000\000\000\000\0008@\000\000\000\000\000\000\020@\000\000\000\000\000\000\024@\000\000\000\000\000\000\020@\000\000\000\000\000\000\024@\000\000\000\000\000\000\030@\000\000\000\000\000\000\024@\000\000\000\000\000\000\020@\000\000\000\000\000\0008@\000\000\000\000\000\0008@\000\000\000\000\000\000\024@\000\000\000\000\000\000\030@\000\000\000\000\000\000\030@\000\000\000\000\000\000\010@\000\000\000\000\000\0008@\000\000\000\000\000\000\020@\000\000\000\000\000\000\024@\000\000\000\000\000\0008@\000\000\000\000\000\000\020@\000\000\000\000\000\000\024@\000\000\000\000\000\000\024@\000\000\000\000\000\000\024@\000\000\000\000\000\000\020@\000\000\000\000\000\0008@\000\000\000\000\000\0008@\000\000\000\000\000\000\020@\000\000\000\000\000\000\020@\000\000\000\000\000\0008@\000\000\000\000\000\000\010@\000\000\000\000\000\000\020@\000\000\000\000\000\0008@\000\000\000\000\000\000\024@\000\000\000\000\000\0008@\000\000\000\000\000\000\034@\000\000\000\000\000\000\020@\000\000\000\000\000\000\024@\000\000\000\000\000\000 @\000\000\000\000\000\000\020@\000\000\000\000\000\000\020@\000\000\000\000\000\000\024@\000\000\000\000\000\0008@\000\000\000\000\000\0008@\000\000\000\000\000\0008@\000\000\000\000\000\000\024@\000\000\000\000\000\0008@\000\000\000\000\000\000 @\000\000\000\000\000\000\030@\000\000\000\000\000\000 @\000\000\000\000\000\000\024@\000\000\000\000\000\000\020@\000\000\000\000\000\0008@\000\000\000\000\000\0008@\000\000\000\000\000\0008@\000\000\000\000\000\000\020@\000\000\000\000\000\000\024@\000\000\000\000\000\0008@\000\000\000\000\000\0008@\000\000\000\000\000\0008@\000\000\000\000\000\000\024@\000\000\000\000\000\000\030@\000\000\000\000\000\000\024@\000\000\000\000\000\0008@\000\000\000\000\000\000\020@\000\000\000\000\000\000\024@\000\000\000\000\000\000\024@\000\000\000\000\000\000\024@\000\000\000\000\000\000\024@\000\000\000\000\000\000\000@\000\000\000\000\000\000\020@\000\000\000\000\000\000\024@\000\000\000\000\000\000\000@\000\000\000\000\000\000\360?\000\000\000\000\000\000\020@\000\000\000\000\000\000\024@\000\000\000\000\000\000\020@\000\000\000\000\000\000\034@\000\000\000\000\000\0008@\000\000\000\000\000\000\024@\000\000\000\000\000\000\024@\000\000\000\000\000\000\024@\000\000\000\000\000\000\034@\000\000\000\000\000\000\020@\000\000\000\000\000\000\010@\000\000\000\000\000\000\020@\000\000\000\000\000\000\020@\000\000\000\000\000\0008@\000\000\000\000\000\000\024@\000\000\000\000\000\0008@\000\000\000\000\000\0008@\000\000\000\000\000\0008@\000\000\000\000\000\0008@\000\000\000\000\000\0008@\000\000\000\000\000\000\020@\000\000\000\000\000\0008@\000\000\000\000\000\0008@\000\000\000\000\000\000\024@\000\000\000\000\000\000\360?\000\000\000\000\000\000\000@\000\000\000\000\000\000\020@\000\000\000\000\000\000\024@\000\000\000\000\000\0008@\000\000\000\000\000\000\024@\000\000\000\000\000\0008@\000\000\000\000\000\0008@\000\000\000\000\000\000\000@\000\000\000\000\000\000\010@\000\000\000\000\000\000\010@\000\000\000\000\000\0008@\000\000\000\000\000\000\020@\000\000\000\000\000\000\000@\000\000\000\000\000\0008@\000\000\000\000\000\000\020@\000\000\000\000\000\000\024@\000\000\000\000\000\000\034@\000\000\000\000\000\000\020@\000\000\000\000\000\000\020@\000\000\000\000\000\0008@\000\000\000\000\000\000 @\000\000\000\000\000\000\030@\000\000\000\000\000\000\030@\000\000\000\000\000\000 @\000\000\000\000\000\000\020@\000\000\000\000\000\0008@\000\000\000\000\000\000\024@\000\000\000\000\000\0008@\000\000\000\000\000\000\010@\000\000\000\000\000\0008@\000\000\000\000\000\000\024@\000\000\000\000\000\000\024@\000\000\000\000\000\000\020@\000\000\000\000\000\000\020@\000\000\000\000\000\0008@\000\000\000\000\000\000\360?\000\000\000\000\000\000\010@\000\000\000\000\000\0008@\000\000\000\000\000\000 @\000\000\000\000\000\000 @\000\000\000\000\000\0008@\000\000\000\000\000\000\020@\000\000\000\000\000\000\024@\000\000\000\000\000\000\034@\000\000\000\000\000\0008@\000\000\000\000\000\000\030@\000\000\000\000\000\000 @\000\000\000\000\000\0008@\000\000\000\000\000\000 @\000\000\000\000\000\000 @\000\000\000\000\000\000\024@\000\000\000\000\000\000\024@\000\000\000\000\000\000\034@\000\000\000\000\000\0008@\000\000\000\000\000\000 @\000\000\000\000\000\000\360?\000\000\000\000\000\000\024@\000\000\000\000\000\000\024@\000\000\000\000\000\000\020@\000\000\000\000\000\000\020@\000\000\000\000\000\0008@\000\000\000\000\000\000\020@\000\000\000\000\000\000\020@\000\000\000\000\000\000\020@\000\000\000\000\000\0008@\000\000\000\000\000\000\024@\000\000\000\000\000\000\020@\000\000\000\000\000\000\000@\000\000\000\000\000\000\020@\000\000\000\000\000\000\000@\000\000\000\000\000\0008@\000\000\000\000\000\000\020@\000\000\000\000\000\000\360?\000\000\000\000\000\000\360?\000\000\000\000\000\000\360?\000\000\000\000\000\0008@\000\000\000\000\000\000\024@\000\000\000\000\000\000\020@\000\000\000\000\000\000 @\000\000\000\000\000\000\020@\000\000\000\000\000\000\024@\000\000\000\000\000\000\010@\000\000\000\000\000\000\000@\000\000\000\000\000\0008@\000\000\000\000\000\000\020@\000\000\000\000\000\000\024@\000\000\000\000\000\000\020@\000\000\000\000\000\000\020@\000\000\000\000\000\000\020@\000\000\000\000\000\000\000@\000\000\000\000\000\000\010@\000\000\000\000\000\000\024@\000\000\000\000\000\0008@\000\000\000\000\000\000\024@\000\000\000\000\000\000\000@\000\000\000\000\000\000\020@\000\000\000\000\000\0008@\000\000\000\000\000\000\020@\000\000\000\000\000\000\024@\000\000\000\000\000\0008@\000\000\000\000\000\0008@\000\000\000\000\000\0008@\000\000\000\000\000\0008@\000\000\000\000\000\000\020@\000\000\000\000\000\0008@\000\000\000\000\000\000\010@\000\000\000\000\000\000\010@\000\000\000\000\000\000\360?\000\000\000\000\000\000\024@\000\000\000\000\000\000\360?"
      }
    }
  }
}
node {
  name: "normalize_element/component_10"
  op: "Const"
  device: "/device:CPU:0"
  attr {
    key: "_output_shapes"
    value {
      list {
        shape {
          dim {
            size: 404
          }
        }
      }
    }
  }
  attr {
    key: "dtype"
    value {
      type: DT_DOUBLE
    }
  }
  attr {
    key: "value"
    value {
      tensor {
        dtype: DT_DOUBLE
        tensor_shape {
          dim {
            size: 404
          }
        }
